<pad>	0
<s>	0
</s>	0
<unk>	0
▁ک	-0
▁ھ	-1
▁ا	-2
▁م	-3
یں	-4
▁ب	-5
▁ت	-6
▁س	-7
▁ن	-8
▁د	-9
▁ج	-10
▁ھے	-11
یا	-12
▁پ	-13
▁گ	-14
▁ھو	-15
ھی	-16
▁و	-17
▁میں	-18
▁ر	-19
▁نھ	-20
ھا	-21
▁کو	-22
▁سے	-23
ان	-24
▁کی	-25
وں	-26
▁خ	-27
ار	-28
▁کھ	-29
▁ل	-30
▁کے	-31
▁تو	-32
▁چ	-33
▁ش	-34
ئی	-35
▁کا	-36
یر	-37
ئے	-38
▁بھی	-39
تا	-40
ھر	-41
▁اس	-42
▁ی	-43
▁ھیں	-44
▁ھم	-45
▁کر	-46
▁نھیں	-47
▁ع	-48
▁کیا	-49
▁دل	-50
تے	-51
ور	-52
اں	-53
جھ	-54
نا	-55
را	-56
یک	-57
▁ح	-58
ال	-59
▁ز	-60
▁ان	-61
ات	-62
▁وھ	-63
▁یھ	-64
▁جو	-65
▁جا	-66
ری	-67
نے	-68
▁ق	-69
▁ف	-70
ام	-71
▁غ	-72
▁نے	-73
▁اب	-74
▁پر	-75
چھ	-76
▁پھ	-77
▁اپ	-78
▁خو	-79
▁تھا	-80
دا	-81
لا	-82
▁ص	-83
ھے	-84
▁مجھ	-85
تی	-86
ند	-87
▁ھوں	-88
▁ھی	-89
▁بھ	-90
▁یا	-91
▁دیک	-92
▁کوئی	-93
رے	-94
کھ	-95
▁ط	-96
▁تم	-97
اھ	-98
▁کس	-99
گر	-100
▁اور	-101
ھاں	-102
ھو	-103
▁کچھ	-104
از	-105
▁جان	-106
▁میر	-107
لے	-108
نی	-109
▁اک	-110
ست	-111
▁ھوا	-112
▁بے	-113
▁در	-114
اب	-115
▁رو	-116
▁دی	-117
▁سو	-118
▁پھر	-119
▁ھر	-120
شق	-121
▁گر	-122
اد	-123
▁گیا	-124
نگ	-125
▁تیر	-126
▁کب	-127
▁دیکھ	-128
▁دو	-129
یس	-130
▁سر	-131
گی	-132
▁مح	-133
لی	-134
▁اے	-135
▁جس	-136
▁مجھے	-137
▁عشق	-138
نھ	-139
▁پا	-140
▁دن	-141
▁غم	-142
ئیں	-143
▁رھ	-144
لو	-145
▁جب	-146
▁سا	-147
ید	-148
▁لی	-149
▁طر	-150
▁رھا	-151
▁اج	-152
▁گل	-153
▁نظ	-154
▁سب	-155
▁تھی	-156
▁تجھ	-157
▁بی	-158
▁گا	-159
اتھ	-160
▁لگ	-161
▁ایک	-162
انی	-163
▁سم	-164
انھ	-165
▁تک	-166
▁بات	-167
▁جائے	-168
ول	-169
▁حس	-170
▁کیوں	-171
فا	-172
▁کبھی	-173
▁انکھ	-174
اری	-175
▁نظر	-176
▁نک	-177
▁مر	-178
▁ات	-179
▁تھے	-180
▁مرے	-181
▁مو	-182
▁ٹ	-183
دھ	-184
▁سک	-185
▁ڈ	-186
▁کسی	-187
▁بر	-188
▁مل	-189
▁گئی	-190
▁بھت	-191
قت	-192
یاں	-193
بت	-194
ائے	-195
انے	-196
▁پی	-197
▁اٹ	-198
▁فر	-199
▁رھے	-200
شت	-201
▁کھاں	-202
شم	-203
▁گے	-204
▁زند	-205
▁ال	-206
▁بد	-207
بر	-208
▁گز	-209
▁اپنے	-210
▁اھ	-211
▁نگ	-212
اک	-213
▁ذ	-214
▁سی	-215
فت	-216
▁لو	-217
▁مگر	-218
▁زم	-219
▁خود	-220
▁گھر	-221
قی	-222
▁تری	-223
▁ترے	-224
ؤں	-225
▁دے	-226
▁ایس	-227
▁یاد	-228
▁گئے	-229
▁بس	-230
▁اش	-231
▁یار	-232
مت	-233
▁شب	-234
▁من	-235
دم	-236
▁مری	-237
فر	-238
▁اپنی	-239
▁رنگ	-240
▁کم	-241
▁دیا	-242
▁ھوئے	-243
▁اگر	-244
▁او	-245
▁ھوئی	-246
▁ھوتا	-247
▁نا	-248
نوں	-249
▁کھیں	-250
ھیں	-251
لھ	-252
▁سن	-253
▁پو	-254
▁مع	-255
▁ائی	-256
▁خدا	-257
▁با	-258
▁شو	-259
سی	-260
▁میرے	-261
باں	-262
▁بھر	-263
▁طرح	-264
▁رات	-265
کر	-266
▁جی	-267
ارے	-268
▁ائے	-269
▁میری	-270
▁زندگی	-271
▁بھا	-272
▁درد	-273
▁یوں	-274
▁لیے	-275
▁ایا	-276
▁دنیا	-277
رم	-278
ائی	-279
▁شا	-280
▁خوش	-281
▁ھاتھ	-282
راب	-283
▁جھاں	-284
▁محبت	-285
▁وفا	-286
▁اپنا	-287
▁اخ	-288
نچ	-289
▁پوچھ	-290
▁شک	-291
▁گو	-292
▁حسن	-293
▁ناز	-294
▁پیا	-295
گا	-296
یز	-297
▁دور	-298
▁وال	-299
▁کرے	-300
رت	-301
کھا	-302
▁نام	-303
▁دا	-304
▁تیری	-305
▁جانے	-306
زم	-307
▁حال	-308
▁مرا	-309
▁پڑ	-310
▁کھا	-311
▁دم	-312
▁لب	-313
▁ظ	-314
▁صب	-315
▁چھو	-316
▁دیو	-317
▁ھمیں	-318
▁شھر	-319
▁مان	-320
▁وھی	-321
▁سمجھ	-322
▁رکھ	-323
▁ساتھ	-324
الم	-325
▁ام	-326
▁بن	-327
▁لے	-328
صل	-329
▁ابھی	-330
▁اسے	-331
▁نگاھ	-332
▁بار	-333
▁گی	-334
بی	-335
▁راھ	-336
▁چشم	-337
▁کام	-338
نج	-339
▁تن	-340
زل	-341
الب	-342
▁لوگ	-343
▁کون	-344
من	-345
▁اگ	-346
▁میرا	-347
سم	-348
فل	-349
▁ست	-350
▁مس	-351
▁نش	-352
سو	-353
▁لا	-354
▁اف	-355
▁ترا	-356
▁رھی	-357
▁ھن	-358
▁تیرے	-359
▁بو	-360
▁فرا	-361
▁چھ	-362
▁لیک	-363
یش	-364
▁خاک	-365
عت	-366
ماں	-367
ارا	-368
▁کھو	-369
▁کھی	-370
▁لیکن	-371
▁مے	-372
▁اٹھا	-373
کا	-374
ستھ	-375
▁جن	-376
طر	-377
▁شم	-378
▁دیکھا	-379
ون	-380
▁کرتے	-381
لف	-382
مر	-383
اند	-384
▁بڑ	-385
▁ادا	-386
در	-387
▁شوق	-388
▁چھوڑ	-389
▁ھوگا	-390
▁شام	-391
▁چاھ	-392
▁وقت	-393
یت	-394
▁ض	-395
البؔ	-396
جر	-397
لک	-398
ین	-399
▁خواب	-400
▁نو	-401
▁گزر	-402
انا	-403
▁چا	-404
▁اسی	-405
▁تر	-406
▁جاں	-407
شک	-408
لب	-409
▁چل	-410
▁عالم	-411
بار	-412
▁سخ	-413
▁داغ	-414
▁تیرا	-415
▁جاتا	-416
زا	-417
▁گرد	-418
▁کھتے	-419
خم	-420
عد	-421
ٹا	-422
▁وا	-423
▁انکھوں	-424
▁خیا	-425
▁جاتے	-426
▁را	-427
▁بیٹ	-428
▁چلے	-429
▁خبر	-430
▁طرف	-431
▁دوست	-432
▁ٹھ	-433
▁بنا	-434
▁ھائے	-435
یب	-436
دھر	-437
ستی	-438
ورت	-439
▁شع	-440
▁مد	-441
▁جگر	-442
▁زخم	-443
▁غیر	-444
▁تجھے	-445
▁جانا	-446
ود	-447
▁جل	-448
▁کل	-449
▁اتا	-450
▁خیال	-451
اتی	-452
▁گھ	-453
▁یک	-454
▁کیس	-455
▁جائیں	-456
ارھ	-457
▁خط	-458
▁قر	-459
▁بزم	-460
▁موج	-461
▁گری	-462
▁جھ	-463
▁مق	-464
▁کش	-465
▁عمر	-466
▁جیس	-467
▁زلف	-468
▁صبح	-469
▁نق	-470
▁دھو	-471
▁سنا	-472
▁اح	-473
▁بند	-474
▁جلو	-475
▁چرا	-476
▁اھل	-477
▁بھار	-478
▁ار	-479
▁اتے	-480
▁دام	-481
▁چاند	-482
تاں	-483
▁صح	-484
▁عج	-485
زار	-486
▁ستم	-487
▁یاں	-488
▁اچ	-489
▁لگا	-490
▁لیا	-491
ما	-492
جھا	-493
▁دع	-494
▁باد	-495
▁روز	-496
▁غالبؔ	-497
پا	-498
▁کت	-499
شن	-500
▁عا	-501
▁چمن	-502
ثر	-503
وش	-504
▁ملا	-505
▁یھی	-506
ھیے	-507
▁تا	-508
▁ھجر	-509
▁دیکھتے	-510
حر	-511
▁عر	-512
▁اخر	-513
کے	-514
▁شمع	-515
▁دکھا	-516
▁چراغ	-517
▁تنھا	-518
▁کار	-519
▁کھل	-520
▁دھ	-521
▁مج	-522
▁انت	-523
▁ایسے	-524
▁صورت	-525
▁مھ	-526
▁پھلے	-527
▁دشم	-528
▁یھاں	-529
ائ	-530
▁نکل	-531
▁کرو	-532
▁تمھا	-533
▁منزل	-534
▁بچ	-535
▁رخ	-536
▁ھوتی	-537
اش	-538
▁باز	-539
▁کھھ	-540
ریب	-541
ھون	-542
▁سفر	-543
▁سھی	-544
▁دریا	-545
▁سخن	-546
▁قدم	-547
ڑا	-548
▁دید	-549
▁جیسے	-550
▁ھوتے	-551
▁تمھیں	-552
وت	-553
داز	-554
▁تھ	-555
▁نال	-556
ضا	-557
▁قیا	-558
▁پری	-559
▁نکلا	-560
▁کریں	-561
خت	-562
رف	-563
▁از	-564
▁ادم	-565
▁بعد	-566
▁مھر	-567
▁شاید	-568
▁فراق	-569
▁پھول	-570
▁انکھیں	-571
تاب	-572
▁وح	-573
▁ور	-574
▁اٹھ	-575
▁ذرا	-576
▁قدر	-577
▁کیسے	-578
▁سام	-579
▁سوچ	-580
▁ایسا	-581
▁جاتی	-582
▁عاشق	-583
▁جسے	-584
شر	-585
لوم	-586
یار	-587
▁شی	-588
▁اسد	-589
▁حیا	-590
▁دست	-591
▁سوں	-592
▁ملے	-593
▁بھول	-594
▁ملتا	-595
▁قیامت	-596
اف	-597
▁شر	-598
▁لکھ	-599
▁چھر	-600
▁ساقی	-601
▁ٹھھر	-602
لم	-603
کار	-604
انوں	-605
▁زباں	-606
▁والے	-607
فس	-608
▁نی	-609
▁صدا	-610
▁اسدؔ	-611
▁دیوار	-612
زو	-613
وب	-614
▁جدا	-615
▁خراب	-616
▁معلوم	-617
وٹ	-618
ڑی	-619
▁اتنا	-620
می	-621
▁بت	-622
▁خم	-623
▁مت	-624
▁راز	-625
▁ادھر	-626
▁امید	-627
▁بھلا	-628
دی	-629
▁جنوں	-630
▁لگتا	-631
▁زمانھ	-632
▁پت	-633
▁جام	-634
▁منھ	-635
▁پاس	-636
▁انھیں	-637
وس	-638
▁سل	-639
▁غر	-640
▁اتی	-641
▁بدل	-642
▁بلا	-643
▁شوخ	-644
▁کیج	-645
▁کھوں	-646
بان	-647
▁نیا	-648
▁پرو	-649
▁کوں	-650
▁حسرت	-651
▁نکلے	-652
▁پھنچ	-653
مک	-654
▁جم	-655
▁اشک	-656
▁سوز	-657
▁تمنا	-658
▁صحرا	-659
▁ھستی	-660
صت	-661
ڑے	-662
▁خام	-663
▁اشنا	-664
▁دشمن	-665
لق	-666
نم	-667
ھونڈ	-668
▁ائینھ	-669
▁بیٹھے	-670
▁ڈھونڈ	-671
بھ	-672
اروں	-673
▁اتش	-674
▁ایسی	-675
▁باقی	-676
▁وحشت	-677
▁تص	-678
▁رک	-679
▁اند	-680
▁حیر	-681
▁ارزو	-682
▁پیار	-683
وق	-684
▁جگ	-685
▁مک	-686
▁انج	-687
▁لگے	-688
▁نقش	-689
▁اچھا	-690
▁زمانے	-691
▁ھمارے	-692
جا	-693
ٹی	-694
سان	-695
▁تی	-696
▁ابر	-697
▁ارا	-698
▁اگے	-699
▁ساز	-700
▁ھنس	-701
▁شراب	-702
اتل	-703
مان	-704
▁تع	-705
▁حا	-706
ستاں	-707
▁بتا	-708
▁خون	-709
▁ادمی	-710
▁تماش	-711
▁قاتل	-712
▁تق	-713
▁خا	-714
▁ڈر	-715
▁دیں	-716
▁سحر	-717
▁تمام	-718
▁زمیں	-719
▁انداز	-720
▁رب	-721
▁نگھ	-722
▁پیر	-723
▁تس	-724
▁بال	-725
▁خوں	-726
▁دعا	-727
▁سوا	-728
▁شرم	-729
▁لھو	-730
▁ورنھ	-731
▁مزا	-732
▁انتظ	-733
شی	-734
فی	-735
افل	-736
▁فی	-737
▁کن	-738
▁دار	-739
یشھ	-740
▁حق	-741
▁تاب	-742
▁ھوش	-743
▁سکتا	-744
▁کھینچ	-745
▁آ	-746
▁مست	-747
▁محفل	-748
▁باتیں	-749
▁ھماری	-750
دے	-751
وے	-752
امت	-753
▁تب	-754
▁دکھ	-755
▁رنج	-756
ھن	-757
▁بخ	-758
▁جلا	-759
▁عجب	-760
▁انتظار	-761
وم	-762
▁ای	-763
▁رس	-764
▁برا	-765
▁سنگ	-766
▁صبا	-767
▁گلی	-768
▁اواز	-769
▁میرؔ	-770
▁پاؤں	-771
▁کرتا	-772
▁گئیں	-773
بو	-774
مل	-775
یھ	-776
واں	-777
▁عق	-778
▁شور	-779
سر	-780
ھد	-781
ئیے	-782
▁ائ	-783
▁بدن	-784
▁جاؤ	-785
▁سکے	-786
▁مشک	-787
▁جلوھ	-788
▁حیات	-789
▁کروں	-790
▁سمجھا	-791
خص	-792
تیں	-793
ندر	-794
یاد	-795
▁حو	-796
▁مص	-797
▁انے	-798
▁سان	-799
▁شخص	-800
▁وصل	-801
▁ٹوٹ	-802
▁انسو	-803
▁خانھ	-804
▁اسماں	-805
▁فق	-806
▁لط	-807
▁پھی	-808
▁ھزار	-809
ٹے	-810
شاں	-811
▁قب	-812
▁انگ	-813
▁تیغ	-814
▁چار	-815
▁دیکھنا	-816
ڑک	-817
▁چپ	-818
▁اتر	-819
▁اوے	-820
▁ذوق	-821
▁الفت	-822
▁مانگ	-823
▁کھلا	-824
گاں	-825
▁صد	-826
▁اثر	-827
▁دھر	-828
▁دیر	-829
▁دامن	-830
▁والا	-831
▁اھستھ	-832
ھل	-833
باب	-834
زاں	-835
طرھ	-836
▁اعت	-837
▁سرا	-838
▁موت	-839
▁ویر	-840
▁پایا	-841
سا	-842
فتھ	-843
▁بک	-844
▁طا	-845
▁اخت	-846
▁شاخ	-847
▁کیے	-848
▁خاطر	-849
▁کرتی	-850
▁دیکھو	-851
▁مژ	-852
▁نم	-853
▁پل	-854
▁رسو	-855
▁طلب	-856
▁چلا	-857
▁اللھ	-858
▁فرصت	-859
▁لیتے	-860
▁پانی	-861
▁گزرے	-862
اھر	-863
وار	-864
ھان	-865
▁بغ	-866
▁مش	-867
▁نص	-868
▁لطف	-869
▁نفس	-870
▁چھی	-871
▁خواھ	-872
▁خودی	-873
▁مشکل	-874
▁کیجے	-875
وھ	-876
ھم	-877
یے	-878
صلھ	-879
▁اڑ	-880
▁سچ	-881
▁مط	-882
▁طبی	-883
▁عھد	-884
▁چند	-885
▁لاکھ	-886
▁پیدا	-887
▁تماشا	-888
▁چاھیے	-889
حب	-890
غر	-891
مھ	-892
رار	-893
▁باغ	-894
▁بنے	-895
▁فلک	-896
▁ناص	-897
▁چیز	-898
▁گرم	-899
▁نالھ	-900
▁پردھ	-901
▁کیسی	-902
▁کیون	-903
▁حج	-904
▁سج	-905
▁ضر	-906
▁عز	-907
▁قص	-908
▁ما	-909
▁پن	-910
▁بان	-911
▁ترک	-912
▁مدت	-913
▁پڑے	-914
▁ھاں	-915
▁دیتے	-916
▁رکھا	-917
▁فراز	-918
▁ھونا	-919
▁فراقؔ	-920
حت	-921
دۂ	-922
زھ	-923
الی	-924
▁اغ	-925
▁بل	-926
▁طو	-927
▁لم	-928
▁ٹک	-929
▁روح	-930
▁چلو	-931
▁ائنھ	-932
▁حاصل	-933
▁ھمارا	-934
وری	-935
▁مث	-936
▁برق	-937
▁حقی	-938
▁شیخ	-939
▁فکر	-940
▁چاک	-941
▁چھپ	-942
▁جاؤں	-943
▁سمجھے	-944
ادھ	-945
▁بج	-946
▁مٹ	-947
▁روش	-948
▁ظفر	-949
▁کان	-950
▁داغؔ	-951
▁کرنا	-952
▁گردش	-953
▁طبیعت	-954
▁چاھتا	-955
▁دیکھیے	-956
تل	-957
کی	-958
اھد	-959
▁حض	-960
▁قس	-961
▁وص	-962
فتار	-963
▁جفا	-964
▁چھا	-965
▁ظفرؔ	-966
▁قرار	-967
▁جانتے	-968
▁حقیقت	-969
ظر	-970
وی	-971
▁جت	-972
▁قد	-973
▁می	-974
▁بچھ	-975
▁تار	-976
▁خور	-977
▁ذکر	-978
▁صبر	-979
▁غزل	-980
▁لگی	-981
▁کھے	-982
▁اتنی	-983
▁اکثر	-984
▁قسمت	-985
▁موسم	-986
▁کھتا	-987
▁گریباں	-988
اط	-989
نؔ	-990
ساں	-991
شتھ	-992
▁تش	-993
▁رگ	-994
▁تصو	-995
▁تلا	-996
▁جوش	-997
▁دوں	-998
▁لال	-999
▁ناد	-1000
▁نور	-1001
▁کرم	-1002
▁خوشی	-1003
▁روشن	-1004
▁ساری	-1005
▁مقام	-1006
▁وھاں	-1007
▁چھپا	-1008
▁اندھی	-1009
▁دونوں	-1010
▁رکھتے	-1011
▁فرازؔ	-1012
دو	-1013
ذب	-1014
انۂ	-1015
بھا	-1016
رام	-1017
▁صا	-1018
▁عذ	-1019
▁فت	-1020
▁انا	-1021
▁بڑھ	-1022
▁شیر	-1023
▁فضا	-1024
▁لیں	-1025
▁مدع	-1026
▁ڈوب	-1027
▁تھیں	-1028
▁حجاب	-1029
▁سانس	-1030
▁ناصح	-1031
▁خوشبو	-1032
رد	-1033
وا	-1034
▁ث	-1035
باد	-1036
سیم	-1037
▁لذ	-1038
▁کف	-1039
▁بیا	-1040
▁بیگ	-1041
▁خار	-1042
▁خوب	-1043
▁دشت	-1044
▁عرض	-1045
▁پیش	-1046
▁ازاد	-1047
▁حیرت	-1048
▁سارے	-1049
▁فرقت	-1050
▁ھوگی	-1051
▁تصویر	-1052
لت	-1053
▁اق	-1054
▁نغ	-1055
▁گم	-1056
▁برس	-1057
▁بلب	-1058
▁رشک	-1059
▁قسم	-1060
▁لذت	-1061
▁لمح	-1062
▁لوٹ	-1063
▁منت	-1064
▁واں	-1065
▁بغیر	-1066
▁بکھر	-1067
▁ظالم	-1068
▁پتھر	-1069
▁ھونے	-1070
▁جاناں	-1071
▁خواھش	-1072
▁تمھارے	-1073
▁تنھائی	-1074
وز	-1075
گز	-1076
ایت	-1077
داد	-1078
ندھ	-1079
▁تغ	-1080
▁فس	-1081
▁امت	-1082
▁جھو	-1083
▁ولی	-1084
▁ھوس	-1085
▁صاحب	-1086
▁غبار	-1087
▁فریب	-1088
▁نیاز	-1089
▁کھئے	-1090
▁کھنا	-1091
▁دیوانھ	-1092
گو	-1093
لاب	-1094
▁یع	-1095
▁ازم	-1096
▁جاگ	-1097
▁جذب	-1098
▁جسم	-1099
▁زھر	-1100
▁سبب	-1101
▁سور	-1102
▁قتل	-1103
▁جواب	-1104
▁رھتا	-1105
▁سکتی	-1106
▁نیند	-1107
▁گلشن	-1108
▁یارو	-1109
▁تغافل	-1110
▁دیکھے	-1111
▁سامنے	-1112
▁کیونکر	-1113
▁ھاتھوں	-1114
نۂ	-1115
▁غل	-1116
نجیر	-1117
▁بجھ	-1118
▁بھو	-1119
▁جگھ	-1120
▁حرف	-1121
▁رقی	-1122
▁شاد	-1123
▁شعر	-1124
▁صرف	-1125
▁فیض	-1126
▁وعد	-1127
▁پھچ	-1128
▁کوچ	-1129
▁ھنر	-1130
▁ائیں	-1131
▁قطرھ	-1132
▁وصال	-1133
▁زنجیر	-1134
▁سمندر	-1135
▁اعتبار	-1136
عظ	-1137
ازھ	-1138
▁تنگ	-1139
▁رند	-1140
▁وار	-1141
▁گاھ	-1142
▁تلاش	-1143
▁زندھ	-1144
▁ساغر	-1145
▁سورج	-1146
▁سینے	-1147
▁عزیز	-1148
▁کافر	-1149
▁ھرگز	-1150
▁جائیے	-1151
▁اختیار	-1152
طن	-1153
یؔ	-1154
یل	-1155
یٔ	-1156
▁کٹ	-1157
▁گن	-1158
▁بخش	-1159
▁تیز	-1160
▁داد	-1161
▁مات	-1162
▁ڈال	-1163
▁کاش	-1164
▁بلبل	-1165
▁حساب	-1166
▁رقیب	-1167
▁رھیں	-1168
▁ولیؔ	-1169
▁پائے	-1170
دار	-1171
سنؔ	-1172
ٹوں	-1173
یدھ	-1174
▁است	-1175
▁بیم	-1176
▁توڑ	-1177
▁جوں	-1178
▁صنم	-1179
▁چکا	-1180
▁گلھ	-1181
▁گوش	-1182
▁اچھی	-1183
▁جوھر	-1184
▁مزاج	-1185
▁خاموش	-1186
▁محسنؔ	-1187
بط	-1188
حل	-1189
دب	-1190
ضر	-1191
غاں	-1192
ھار	-1193
▁جز	-1194
▁سپ	-1195
▁تھو	-1196
▁شاع	-1197
▁فصل	-1198
▁فنا	-1199
▁ماھ	-1200
▁مسا	-1201
▁کوھ	-1202
▁بادھ	-1203
▁بجھا	-1204
▁دیتا	-1205
▁سائے	-1206
▁سودا	-1207
▁ظاھر	-1208
▁مدعا	-1209
▁واعظ	-1210
▁کتنا	-1211
▁کرنے	-1212
▁گزری	-1213
▁جانتا	-1214
▁دھواں	-1215
سط	-1216
سار	-1217
▁خیر	-1218
▁زیر	-1219
▁سیا	-1220
▁ضبط	-1221
▁مرگ	-1222
▁دلوں	-1223
▁واسط	-1224
▁چھرھ	-1225
▁یعنی	-1226
▁دیدار	-1227
▁لوگوں	-1228
ائل	-1229
ابل	-1230
بال	-1231
▁تج	-1232
▁زن	-1233
▁چر	-1234
▁خلو	-1235
▁سیر	-1236
▁غرض	-1237
▁زبان	-1238
▁شکست	-1239
▁نصیب	-1240
▁کتنی	-1241
▁کتنے	-1242
▁کھنے	-1243
▁گماں	-1244
▁شکایت	-1245
▁سمجھتے	-1246
رھ	-1247
ناھ	-1248
▁عش	-1249
▁پس	-1250
▁اکی	-1251
▁بوس	-1252
▁تلک	-1253
▁حشر	-1254
▁خطا	-1255
▁سزا	-1256
▁ویس	-1257
▁پڑا	-1258
▁پیچ	-1259
▁اٹھے	-1260
▁جلوۂ	-1261
▁جھان	-1262
▁دیدۂ	-1263
▁شعلھ	-1264
▁مانا	-1265
▁مطلب	-1266
▁چارھ	-1267
▁کیسا	-1268
▁برباد	-1269
▁جوانی	-1270
▁مانگے	-1271
▁چاھئے	-1272
▁پریشاں	-1273
اغ	-1274
جو	-1275
ٹک	-1276
گار	-1277
▁حد	-1278
▁دش	-1279
▁ھا	-1280
بانی	-1281
▁دوا	-1282
▁راس	-1283
▁رسم	-1284
▁رھو	-1285
▁زار	-1286
▁عقل	-1287
▁ٹھک	-1288
▁اوار	-1289
▁اکبر	-1290
▁بیاں	-1291
▁دھوپ	-1292
▁زاھد	-1293
▁پھلو	-1294
▁چھرے	-1295
▁کھول	-1296
▁جالبؔ	-1297
▁روشنی	-1298
▁تمھاری	-1299
عل	-1300
طرت	-1301
▁تپ	-1302
▁رح	-1303
▁وج	-1304
▁بیچ	-1305
▁جنگ	-1306
▁جنھ	-1307
▁حلق	-1308
▁شاھ	-1309
▁صاف	-1310
▁نئی	-1311
▁پار	-1312
▁اباد	-1313
▁ابرو	-1314
▁تسلی	-1315
▁جمال	-1316
▁رھتے	-1317
▁سینھ	-1318
▁طاقت	-1319
▁فطرت	-1320
▁لالھ	-1321
▁لگتی	-1322
▁نھاں	-1323
▁چاھے	-1324
▁گویا	-1325
▁درکار	-1326
▁واسطے	-1327
▁دیکھوں	-1328
▁رسوائی	-1329
سوس	-1330
لوں	-1331
▁تڑ	-1332
▁رق	-1333
▁صف	-1334
▁نس	-1335
▁جرم	-1336
▁حرم	-1337
▁سخت	-1338
▁سکا	-1339
▁شکر	-1340
▁طوف	-1341
▁قفس	-1342
▁نئے	-1343
▁پان	-1344
▁چمک	-1345
▁کسے	-1346
▁کلی	-1347
▁گفت	-1348
▁بچھڑ	-1349
▁حضرت	-1350
▁دماغ	-1351
▁رستھ	-1352
▁ساحل	-1353
▁سبھی	-1354
▁لکھا	-1355
▁ملنے	-1356
▁مکاں	-1357
▁اکبرؔ	-1358
▁جدائی	-1359
ضب	-1360
▁بگ	-1361
▁شے	-1362
▁عن	-1363
▁وع	-1364
▁حری	-1365
▁زیا	-1366
▁عدم	-1367
▁غضب	-1368
▁فقط	-1369
▁مقت	-1370
▁کئے	-1371
▁اتنے	-1372
▁اداس	-1373
▁بستی	-1374
▁تصور	-1375
▁خانے	-1376
▁خزاں	-1377
▁شکوھ	-1378
▁عجیب	-1379
▁لینا	-1380
▁میاں	-1381
▁چھیڑ	-1382
▁کتاب	-1383
▁کدھر	-1384
▁گریھ	-1385
▁احسان	-1386
▁انجمن	-1387
▁جنھیں	-1388
▁سنبھا	-1389
▁مسافر	-1390
▁والوں	-1391
▁پھنچا	-1392
▁پیارے	-1393
اق	-1394
شید	-1395
نجر	-1396
▁کع	-1397
شانی	-1398
نگام	-1399
▁ارم	-1400
▁بست	-1401
▁جست	-1402
▁خفا	-1403
▁درم	-1404
▁طرز	-1405
▁عیش	-1406
▁مثل	-1407
▁مرد	-1408
▁نما	-1409
▁پلک	-1410
▁چین	-1411
▁امتح	-1412
▁خانۂ	-1413
▁خنجر	-1414
▁رستے	-1415
▁سایھ	-1416
▁سوئے	-1417
▁شبنم	-1418
▁محشر	-1419
▁نغمھ	-1420
▁وعدھ	-1421
▁پائی	-1422
▁ھنوز	-1423
▁انسان	-1424
▁انساں	-1425
▁مانند	-1426
▁مجنوں	-1427
▁ھنگام	-1428
▁تمھارا	-1429
▁دیکھتا	-1430
صر	-1431
جئے	-1432
▁خل	-1433
▁دب	-1434
▁رت	-1435
▁مض	-1436
▁اڑا	-1437
▁بام	-1438
▁بسر	-1439
▁بول	-1440
▁بچا	-1441
▁بڑا	-1442
▁بیک	-1443
▁دھن	-1444
▁ذرھ	-1445
▁ظلم	-1446
▁مسک	-1447
▁مسی	-1448
▁ملی	-1449
▁کئی	-1450
▁اسیر	-1451
▁تکلف	-1452
▁جگرؔ	-1453
▁رکھے	-1454
▁شیشھ	-1455
▁غریب	-1456
▁فغاں	-1457
▁مرنے	-1458
▁ملتی	-1459
▁نشاط	-1460
▁کوئے	-1461
▁کھیل	-1462
▁گراں	-1463
▁گزار	-1464
▁بیٹھا	-1465
▁راتیں	-1466
▁رکھتا	-1467
▁سلامت	-1468
▁نکلتی	-1469
▁پنھاں	-1470
▁دکھائی	-1471
رگ	-1472
فظ	-1473
ھب	-1474
برا	-1475
ثار	-1476
جوم	-1477
▁اؤ	-1478
▁بجا	-1479
▁برگ	-1480
▁تھک	-1481
▁حنا	-1482
▁ذھن	-1483
▁ریز	-1484
▁قبا	-1485
▁ناک	-1486
▁چکے	-1487
▁کمی	-1488
▁اساں	-1489
▁بدلا	-1490
▁بسمل	-1491
▁داری	-1492
▁غافل	-1493
▁مسیح	-1494
▁معنی	-1495
▁کھلے	-1496
▁گردن	-1497
▁گناھ	-1498
▁اٹھتا	-1499
▁بنایا	-1500
▁جستجو	-1501
▁دوستی	-1502
▁زنداں	-1503
▁پھنچے	-1504
▁چھوڑا	-1505
▁گھبرا	-1506
▁خورشید	-1507
▁کارواں	-1508
اس	-1509
ضی	-1510
لۂ	-1511
مے	-1512
کس	-1513
راز	-1514
شتر	-1515
قات	-1516
ھید	-1517
یوں	-1518
▁اض	-1519
▁حک	-1520
▁خس	-1521
▁دک	-1522
▁لڑ	-1523
▁نز	-1524
▁خضر	-1525
▁خوف	-1526
▁سھا	-1527
▁صدی	-1528
▁لفظ	-1529
▁لوں	-1530
▁پتا	-1531
▁چلی	-1532
▁خالی	-1533
▁خلوت	-1534
▁دینا	-1535
▁سوال	-1536
▁صیاد	-1537
▁فیضؔ	-1538
▁قریب	-1539
▁مستی	-1540
▁پیاس	-1541
▁اکیلا	-1542
▁باتوں	-1543
▁بازار	-1544
▁شیریں	-1545
▁فریاد	-1546
▁پھرتے	-1547
▁کھانی	-1548
▁اوارگی	-1549
▁بیاباں	-1550
▁گلستاں	-1551
ئش	-1552
زے	-1553
ھٔ	-1554
ارت	-1555
اھی	-1556
ھاد	-1557
▁بٹ	-1558
▁طل	-1559
ستان	-1560
سیمؔ	-1561
ینوں	-1562
▁اول	-1563
▁بڑی	-1564
▁بید	-1565
▁تقا	-1566
▁درو	-1567
▁ستا	-1568
▁سرو	-1569
▁سما	-1570
▁سنو	-1571
▁شان	-1572
▁عار	-1573
▁علم	-1574
▁قید	-1575
▁مال	-1576
▁محو	-1577
▁مٹا	-1578
▁نظم	-1579
▁وھم	-1580
▁پیم	-1581
▁گدا	-1582
▁گلے	-1583
▁ھون	-1584
▁افسر	-1585
▁خوار	-1586
▁راحت	-1587
▁رفتھ	-1588
▁روئے	-1589
▁سادھ	-1590
▁سکتے	-1591
▁صحبت	-1592
▁منظر	-1593
▁پاتے	-1594
▁کمال	-1595
▁گرچھ	-1596
▁باندھ	-1597
▁حالیؔ	-1598
▁دیکھی	-1599
▁سراپا	-1600
▁نظارھ	-1601
▁وسیمؔ	-1602
▁پوچھو	-1603
▁پوچھے	-1604
▁پھچان	-1605
▁گفتگو	-1606
▁ھمیشھ	-1607
تم	-1608
قع	-1609
قھ	-1610
لس	-1611
وئے	-1612
▁تل	-1613
▁ضع	-1614
▁چڑ	-1615
طراب	-1616
ھیئے	-1617
▁احت	-1618
▁الت	-1619
▁اچھ	-1620
▁تلو	-1621
▁تڑپ	-1622
▁دان	-1623
▁روٹ	-1624
▁مار	-1625
▁پڑی	-1626
▁پیک	-1627
▁کمر	-1628
▁ھار	-1629
▁ھمت	-1630
▁بوجھ	-1631
▁بڑھا	-1632
▁تازھ	-1633
▁تشنھ	-1634
▁دعوی	-1635
▁دنوں	-1636
▁رخصت	-1637
▁رونے	-1638
▁رھنے	-1639
▁سکوں	-1640
▁فقیر	-1641
▁مقتل	-1642
▁مقدر	-1643
▁نکال	-1644
▁پردے	-1645
▁کھیے	-1646
▁ھجوم	-1647
▁افتاب	-1648
▁بیمار	-1649
▁زیادھ	-1650
▁مژگاں	-1651
▁ھواؤں	-1652
▁اضطراب	-1653
▁دیکھنے	-1654
▁چاھیئے	-1655
زن	-1656
صد	-1657
وۂ	-1658
یۂ	-1659
بور	-1660
ختھ	-1661
قیں	-1662
میر	-1663
وال	-1664
وان	-1665
چھا	-1666
کیں	-1667
▁رم	-1668
▁سھ	-1669
▁شھ	-1670
▁لٹ	-1671
انگی	-1672
▁افس	-1673
▁بھل	-1674
▁تقد	-1675
▁جنت	-1676
▁طور	-1677
▁فرو	-1678
▁نوا	-1679
▁وطن	-1680
▁کیف	-1681
▁ارام	-1682
▁بازی	-1683
▁بسکھ	-1684
▁بلند	-1685
▁تعلق	-1686
▁جیتے	-1687
▁زمین	-1688
▁سنتے	-1689
▁شھید	-1690
▁نازک	-1691
▁نشاں	-1692
▁نشیں	-1693
▁وجود	-1694
▁پھری	-1695
▁گھٹا	-1696
▁ھنسی	-1697
▁انجام	-1698
▁فیصلھ	-1699
▁پرواز	-1700
▁ھوائے	-1701
▁اٹھائے	-1702
▁بیگانھ	-1703
▁داستاں	-1704
▁پروانھ	-1705
▁چاندنی	-1706
▁ڈھونڈتے	-1707
جد	-1708
جے	-1709
قا	-1710
نؤ	-1711
کش	-1712
ادث	-1713
نگی	-1714
ھور	-1715
یبت	-1716
▁زر	-1717
▁نب	-1718
مانی	-1719
▁ازل	-1720
▁حور	-1721
▁دلی	-1722
▁سبز	-1723
▁سلی	-1724
▁سمت	-1725
▁شکل	-1726
▁عدو	-1727
▁علا	-1728
▁عکس	-1729
▁مرغ	-1730
▁ممک	-1731
▁مٹی	-1732
▁نات	-1733
▁نگر	-1734
▁نیم	-1735
▁چال	-1736
▁ڈھل	-1737
▁کرن	-1738
▁ابھر	-1739
▁الجھ	-1740
▁الٹی	-1741
▁باھر	-1742
▁جینے	-1743
▁دولت	-1744
▁شوخی	-1745
▁غرور	-1746
▁ملتے	-1747
▁نامھ	-1748
▁پرست	-1749
▁کعبھ	-1750
▁گرمی	-1751
▁ھووے	-1752
▁انتھا	-1753
▁اگرچھ	-1754
▁بیداد	-1755
▁تقدیر	-1756
▁حوصلھ	-1757
▁لکھنؤ	-1758
▁مسکرا	-1759
▁پیرھن	-1760
▁درمیاں	-1761
امی	-1762
تاع	-1763
نچھ	-1764
وسف	-1765
ڑوں	-1766
یان	-1767
▁زی	-1768
▁ضد	-1769
▁فا	-1770
▁پک	-1771
▁باب	-1772
▁بحر	-1773
▁برھ	-1774
▁دری	-1775
▁زور	-1776
▁سھل	-1777
▁سیک	-1778
▁سیھ	-1779
▁شیش	-1780
▁صفا	-1781
▁ضعف	-1782
▁عام	-1783
▁غفل	-1784
▁قاف	-1785
▁مند	-1786
▁نمک	-1787
▁پاک	-1788
▁کشت	-1789
▁گیس	-1790
▁بارش	-1791
▁بھری	-1792
▁جلتے	-1793
▁خرام	-1794
▁دیدھ	-1795
▁سارا	-1796
▁عذاب	-1797
▁متاع	-1798
▁مثال	-1799
▁ممکن	-1800
▁نالے	-1801
▁گوھر	-1802
▁ھمدم	-1803
▁یقیں	-1804
▁یوسف	-1805
▁بھاری	-1806
▁مصیبت	-1807
▁ناداں	-1808
▁یاروں	-1809
رو	-1810
چل	-1811
چے	-1812
▁اع	-1813
▁حی	-1814
▁رع	-1815
▁سع	-1816
▁لک	-1817
▁جمع	-1818
▁دیے	-1819
▁رشت	-1820
▁سنے	-1821
▁شنا	-1822
▁عذر	-1823
▁فرق	-1824
▁قضا	-1825
▁قلم	-1826
▁لئے	-1827
▁منا	-1828
▁ناخ	-1829
▁نار	-1830
▁پتھ	-1831
▁پلٹ	-1832
▁پیغ	-1833
▁چرخ	-1834
▁ھاۓ	-1835
▁اجال	-1836
▁باند	-1837
▁بنتا	-1838
▁خوبی	-1839
▁دھڑک	-1840
▁لیتا	-1841
▁ماتم	-1842
▁ملنا	-1843
▁مینا	-1844
▁وعدۂ	-1845
▁پانچ	-1846
▁پیام	-1847
▁گداز	-1848
▁گلاب	-1849
▁یارب	-1850
▁جانیں	-1851
▁حیراں	-1852
▁دشوار	-1853
▁دکھلا	-1854
▁راستھ	-1855
▁صدیوں	-1856
▁منتظر	-1857
▁ٹھھرا	-1858
▁ٹھھری	-1859
▁نگاھیں	-1860
بث	-1861
حھ	-1862
بھل	-1863
ثیر	-1864
روں	-1865
رگس	-1866
زام	-1867
لاک	-1868
لیٰ	-1869
ناب	-1870
▁فن	-1871
▁مذ	-1872
▁ادب	-1873
▁امد	-1874
▁بڑے	-1875
▁تلخ	-1876
▁جور	-1877
▁دوس	-1878
▁ذات	-1879
▁سدا	-1880
▁شرر	-1881
▁شمش	-1882
▁طرب	-1883
▁عاد	-1884
▁عبث	-1885
▁غنچ	-1886
▁قصھ	-1887
▁قیس	-1888
▁لعل	-1889
▁پڑھ	-1890
▁چور	-1891
▁ازار	-1892
▁بارے	-1893
▁برپا	-1894
▁بوسھ	-1895
▁جانب	-1896
▁حالت	-1897
▁حریف	-1898
▁خندھ	-1899
▁رواں	-1900
▁رھتی	-1901
▁علاج	-1902
▁غفلت	-1903
▁لائے	-1904
▁محرم	-1905
▁ملیں	-1906
▁نثار	-1907
▁نرگس	-1908
▁نقاب	-1909
▁وھیں	-1910
▁چاھا	-1911
▁گھڑی	-1912
▁اشیاں	-1913
▁افسوس	-1914
▁اقرار	-1915
▁الزام	-1916
▁اوروں	-1917
▁تاثیر	-1918
▁تلوار	-1919
▁خوباں	-1920
▁دعویٰ	-1921
▁سامان	-1922
▁ساماں	-1923
▁سنبھل	-1924
▁شاعری	-1925
▁لکھوں	-1926
▁موجود	-1927
▁کھلتا	-1928
▁مھرباں	-1929
▁نگاھوں	-1930
▁ھونٹوں	-1931
ائش	-1932
ازی	-1933
سعت	-1934
فیق	-1935
نبی	-1936
گان	-1937
▁ری	-1938
▁لھ	-1939
سائی	-1940
▁الم	-1941
▁الٰ	-1942
▁جرا	-1943
▁خرم	-1944
▁خشک	-1945
▁ربط	-1946
▁ریت	-1947
▁عید	-1948
▁غلط	-1949
▁مکر	-1950
▁پچھ	-1951
▁کدھ	-1952
▁کسو	-1953
▁گرھ	-1954
▁گلا	-1955
▁اغوش	-1956
▁بدلے	-1957
▁بندھ	-1958
▁بھتر	-1959
▁جادو	-1960
▁جتنا	-1961
▁جلوے	-1962
▁جنون	-1963
▁جنگل	-1964
▁حباب	-1965
▁دیتی	-1966
▁زیست	-1967
▁سکوت	-1968
▁شعلۂ	-1969
▁غنچھ	-1970
▁قبول	-1971
▁مارا	-1972
▁مرنا	-1973
▁مکان	-1974
▁نگار	-1975
▁وسعت	-1976
▁پسند	-1977
▁ڈرتے	-1978
▁کشتی	-1979
▁ائینۂ	-1980
▁انکار	-1981
▁بندگی	-1982
▁دشمنی	-1983
▁عاشقی	-1984
▁فسانھ	-1985
▁لیجئے	-1986
▁ٹھھرے	-1987
▁پیغام	-1988
▁کیجیے	-1989
▁ھجراں	-1990
▁لاکھوں	-1991
▁ویرانی	-1992
▁پوچھتے	-1993
▁گرفتار	-1994
▁ھزاروں	-1995
سب	-1996
فو	-1997
جاد	-1998
ذیب	-1999
ستا	-2000
شیں	-2001
نات	-2002
نام	-2003
▁اد	-2004
▁اظ	-2005
▁تح	-2006
▁حر	-2007
▁زد	-2008
▁قط	-2009
▁ٹو	-2010
▁ٹپ	-2011
گرنھ	-2012
▁خال	-2013
▁ختم	-2014
▁خرا	-2015
▁درس	-2016
▁ساد	-2017
▁سیل	-2018
▁سیں	-2019
▁شجر	-2020
▁فرد	-2021
▁لخت	-2022
▁نشھ	-2023
▁ننگ	-2024
▁نیر	-2025
▁واھ	-2026
▁چکی	-2027
▁کدے	-2028
▁گار	-2029
▁بتاں	-2030
▁بھرے	-2031
▁بیٹھ	-2032
▁جواں	-2033
▁خطرھ	-2034
▁خمار	-2035
▁دینے	-2036
▁رسوا	-2037
▁روتے	-2038
▁شباب	-2039
▁شمار	-2040
▁ضرور	-2041
▁فتنھ	-2042
▁فرما	-2043
▁قابل	-2044
▁لایا	-2045
▁لبوں	-2046
▁لینے	-2047
▁مجھی	-2048
▁نشان	-2049
▁وعدے	-2050
▁ویسے	-2051
▁پروا	-2052
▁کبھو	-2053
▁کلام	-2054
▁کوچۂ	-2055
▁گنوا	-2056
▁اجنبی	-2057
▁احتیا	-2058
▁اقبال	-2059
▁ایجاد	-2060
▁تھذیب	-2061
▁تھوڑی	-2062
▁نکلتے	-2063
▁وگرنھ	-2064
▁پوچھا	-2065
▁سنبھال	-2066
▁ملاقات	-2067
بش	-2068
ذر	-2069
شش	-2070
غذ	-2071
نڈ	-2072
چا	-2073
ازت	-2074
بری	-2075
ساس	-2076
ونک	-2077
یاب	-2078
▁اص	-2079
▁دف	-2080
▁قا	-2081
▁نخ	-2082
▁پگ	-2083
ئنات	-2084
تابی	-2085
لیاں	-2086
▁اجل	-2087
▁بگڑ	-2088
▁جھک	-2089
▁جیب	-2090
▁دلا	-2091
▁دود	-2092
▁رھن	-2093
▁سرد	-2094
▁شرط	-2095
▁شکن	-2096
▁عنا	-2097
▁عیب	-2098
▁مشت	-2099
▁مفت	-2100
▁ملک	-2101
▁ناچ	-2102
▁ناگ	-2103
▁واد	-2104
▁ولے	-2105
▁گیر	-2106
▁اخری	-2107
▁ازما	-2108
▁اندر	-2109
▁بھیگ	-2110
▁جنبش	-2111
▁رشتھ	-2112
▁رونا	-2113
▁زیاں	-2114
▁سراب	-2115
▁سکھا	-2116
▁شاعر	-2117
▁طلسم	-2118
▁مراد	-2119
▁مزار	-2120
▁مسجد	-2121
▁نسیم	-2122
▁پھرے	-2123
▁کاغذ	-2124
▁کوچے	-2125
▁کھلی	-2126
▁کھنچ	-2127
▁گزرا	-2128
▁احباب	-2129
▁احساس	-2130
▁اظھار	-2131
▁اوارھ	-2132
▁ایمان	-2133
▁تسلیم	-2134
▁حالات	-2135
▁خامشی	-2136
▁دھوکا	-2137
▁راستے	-2138
▁رنگیں	-2139
▁ستارے	-2140
▁شمشیر	-2141
▁مقابل	-2142
▁امتحاں	-2143
▁داستان	-2144
▁دیکھیں	-2145
▁روزگار	-2146
▁ستاروں	-2147
▁چراغاں	-2148
▁کائنات	-2149
جی	-2150
نت	-2151
تاق	-2152
شاد	-2153
صلے	-2154
فرت	-2155
لاف	-2156
لیب	-2157
لیف	-2158
وشی	-2159
▁شد	-2160
▁قی	-2161
▁وض	-2162
بارک	-2163
دبیر	-2164
نائی	-2165
گانی	-2166
▁بخت	-2167
▁دگر	-2168
▁دین	-2169
▁رحم	-2170
▁سال	-2171
▁سلس	-2172
▁عجز	-2173
▁غنی	-2174
▁مای	-2175
▁مخت	-2176
▁مھک	-2177
▁ندی	-2178
▁کشی	-2179
▁گام	-2180
▁گرا	-2181
▁یاس	-2182
▁اگھی	-2183
▁بتوں	-2184
▁بستر	-2185
▁بوئے	-2186
▁تبسم	-2187
▁جتنے	-2188
▁جھوٹ	-2189
▁جھکا	-2190
▁جیسا	-2191
▁جینا	-2192
▁حسیں	-2193
▁دلبر	-2194
▁سایۂ	-2195
▁شاھد	-2196
▁طالب	-2197
▁عادت	-2198
▁قدرت	-2199
▁لمحھ	-2200
▁مرتا	-2201
▁مروت	-2202
▁نالۂ	-2203
▁ٹوٹے	-2204
▁پردۂ	-2205
▁پھیر	-2206
▁کرشم	-2207
▁کوشش	-2208
▁کھتی	-2209
▁اجازت	-2210
▁احوال	-2211
▁ارمان	-2212
▁اشکوں	-2213
▁الٰھی	-2214
▁بھولے	-2215
▁تاروں	-2216
▁تدبیر	-2217
▁تقاضا	-2218
▁رفتار	-2219
▁ضروری	-2220
▁فرھاد	-2221
▁مبارک	-2222
▁مسیحا	-2223
▁مشتاق	-2224
▁گلیوں	-2225
▁افسردھ	-2226
▁باندھا	-2227
▁دیوانے	-2228
▁پوچھتا	-2229
▁باندھتے	-2230
بے	-2231
صے	-2232
قف	-2233
وک	-2234
جات	-2235
خیر	-2236
داں	-2237
عار	-2238
یرے	-2239
▁بح	-2240
▁طب	-2241
▁ظل	-2242
▁لپ	-2243
▁وو	-2244
▁ھل	-2245
صلحت	-2246
▁بشر	-2247
▁جگا	-2248
▁جیے	-2249
▁خرد	-2250
▁خلق	-2251
▁دھا	-2252
▁رقم	-2253
▁رون	-2254
▁زان	-2255
▁صید	-2256
▁طری	-2257
▁مید	-2258
▁پشی	-2259
▁پلا	-2260
▁پھا	-2261
▁پیڑ	-2262
▁ڈھا	-2263
▁گنھ	-2264
▁گھٹ	-2265
▁ھند	-2266
▁اترا	-2267
▁اغاز	-2268
▁انجم	-2269
▁انگن	-2270
▁باری	-2271
▁تجلی	-2272
▁جبیں	-2273
▁جدھر	-2274
▁حادث	-2275
▁حضور	-2276
▁خرمن	-2277
▁دراز	-2278
▁دھند	-2279
▁رائی	-2280
▁روزن	-2281
▁روٹھ	-2282
▁سرمھ	-2283
▁سرگر	-2284
▁سنتا	-2285
▁سوچا	-2286
▁شکار	-2287
▁فروغ	-2288
▁معام	-2289
▁نصیر	-2290
▁نظمؔ	-2291
▁وائے	-2292
▁والو	-2293
▁ٹکڑے	-2294
▁پھیل	-2295
▁ائینے	-2296
▁اغیار	-2297
▁تکلیف	-2298
▁سادگی	-2299
▁سوچتا	-2300
▁صدائے	-2301
▁لیلیٰ	-2302
▁مصلحت	-2303
▁ملامت	-2304
▁ناکام	-2305
▁وفائی	-2306
▁پلکوں	-2307
▁گردوں	-2308
▁گفتار	-2309
▁بھولنے	-2310
▁خاموشی	-2311
▁زندگانی	-2312
ئم	-2313
داع	-2314
شان	-2315
شتے	-2316
فات	-2317
وند	-2318
ویں	-2319
کین	-2320
یدن	-2321
▁لح	-2322
▁لر	-2323
ئیاں	-2324
▁ابت	-2325
▁افت	-2326
▁الو	-2327
▁اھٹ	-2328
▁بقا	-2329
▁تپش	-2330
▁خاص	-2331
▁خان	-2332
▁رقص	-2333
▁روا	-2334
▁زرد	-2335
▁سرخ	-2336
▁سنی	-2337
▁سود	-2338
▁سید	-2339
▁طبع	-2340
▁عیس	-2341
▁فرم	-2342
▁قبر	-2343
▁قرب	-2344
▁قرض	-2345
▁لاش	-2346
▁لھر	-2347
▁مزھ	-2348
▁مسئ	-2349
▁مسل	-2350
▁نشے	-2351
▁نیک	-2352
▁وجھ	-2353
▁پاب	-2354
▁پرس	-2355
▁پھن	-2356
▁پھو	-2357
▁چنگ	-2358
▁کشا	-2359
▁کفن	-2360
▁اٹھی	-2361
▁ایام	-2362
▁بادل	-2363
▁برھم	-2364
▁توجھ	-2365
▁حلقۂ	-2366
▁دیار	-2367
▁رشتۂ	-2368
▁روتا	-2369
▁زنار	-2370
▁سرور	-2371
▁سوچو	-2372
▁شرما	-2373
▁عارض	-2374
▁غلام	-2375
▁غیرت	-2376
▁قامت	-2377
▁قربت	-2378
▁لباس	-2379
▁لمحے	-2380
▁نبھا	-2381
▁نسبت	-2382
▁نفرت	-2383
▁کارو	-2384
▁اجالا	-2385
▁اسمان	-2386
▁اٹھتے	-2387
▁برابر	-2388
▁بیتاب	-2389
▁بیکسی	-2390
▁خرابی	-2391
▁راتوں	-2392
▁رخسار	-2393
▁سناٹا	-2394
▁عنایت	-2395
▁غنیمت	-2396
▁غیروں	-2397
▁قراری	-2398
▁قربان	-2399
▁نصیرؔ	-2400
▁نظریں	-2401
▁پھرتا	-2402
▁کھائی	-2403
▁گوارا	-2404
▁ازمائش	-2405
▁انسوؤں	-2406
▁بیتابی	-2407
▁دعائیں	-2408
▁دوستوں	-2409
▁ڈھونڈھ	-2410
▁کامیاب	-2411
▁ھنگامھ	-2412
اع	-2413
طا	-2414
عث	-2415
غت	-2416
جاز	-2417
دگی	-2418
شار	-2419
ورا	-2420
کھت	-2421
یدی	-2422
▁اذ	-2423
▁خز	-2424
▁شگ	-2425
▁طع	-2426
▁طے	-2427
▁قل	-2428
▁چم	-2429
ائیے	-2430
ستگی	-2431
فاقت	-2432
قلاب	-2433
ھوکر	-2434
یاری	-2435
یروں	-2436
▁بجز	-2437
▁بسا	-2438
▁تند	-2439
▁جشن	-2440
▁حکم	-2441
▁خند	-2442
▁رفت	-2443
▁زدھ	-2444
▁زین	-2445
▁سبک	-2446
▁عمل	-2447
▁محت	-2448
▁مشق	-2449
▁مضم	-2450
▁منص	-2451
▁موڑ	-2452
▁نرم	-2453
▁چڑھ	-2454
▁کشم	-2455
▁کفر	-2456
▁گنج	-2457
▁گوں	-2458
▁بازو	-2459
▁باعث	-2460
▁بجلی	-2461
▁بولے	-2462
▁بھاگ	-2463
▁بھرا	-2464
▁بھید	-2465
▁تھمت	-2466
▁جانی	-2467
▁جناب	-2468
▁جھون	-2469
▁جیوں	-2470
▁دانھ	-2471
▁رحمت	-2472
▁رھنا	-2473
▁ساعت	-2474
▁سبزھ	-2475
▁سکون	-2476
▁سیاھ	-2477
▁شریک	-2478
▁ظلمت	-2479
▁عشاق	-2480
▁عشرت	-2481
▁لگتے	-2482
▁لگیں	-2483
▁مائل	-2484
▁مانع	-2485
▁موتی	-2486
▁نواز	-2487
▁نکھت	-2488
▁وداع	-2489
▁ٹوٹا	-2490
▁پاتا	-2491
▁پرسش	-2492
▁پڑتا	-2493
▁کروٹ	-2494
▁کشتھ	-2495
▁اشعار	-2496
▁اعجاز	-2497
▁اٹھتی	-2498
▁اٹھیں	-2499
▁بارھا	-2500
▁بھروس	-2501
▁بیدار	-2502
▁تکرار	-2503
▁خدائی	-2504
▁رفاقت	-2505
▁رھنما	-2506
▁زمانا	-2507
▁مجبور	-2508
▁مدتوں	-2509
▁نوائے	-2510
▁نیرنگ	-2511
▁ویراں	-2512
▁ٹھوکر	-2513
▁پیمان	-2514
▁کھلتے	-2515
▁یادوں	-2516
▁اقبالؔ	-2517
▁امتحان	-2518
▁انقلاب	-2519
▁خوابوں	-2520
▁ٹھکانا	-2521
▁پھولوں	-2522
▁چراغوں	-2523
▁کانٹوں	-2524
▁پریشانی	-2525
▁کاروبار	-2526
جن	-2527
سل	-2528
قے	-2529
مۂ	-2530
پر	-2531
ابت	-2532
ادر	-2533
برو	-2534
ثال	-2535
سوں	-2536
شنۂ	-2537
صود	-2538
طرب	-2539
طرۂ	-2540
فاظ	-2541
فتر	-2542
لاں	-2543
چھے	-2544
کتا	-2545
یاز	-2546
یدا	-2547
▁بز	-2548
▁خی	-2549
▁رز	-2550
▁سف	-2551
▁غش	-2552
▁چی	-2553
▁ڈھ	-2554
▁کج	-2555
▁ھش	-2556
داوت	-2557
ضائے	-2558
▁ادھ	-2559
▁اھو	-2560
▁بنی	-2561
▁تحر	-2562
▁تخت	-2563
▁جلے	-2564
▁حدی	-2565
▁حرص	-2566
▁دھی	-2567
▁رلا	-2568
▁زیب	-2569
▁سجن	-2570
▁سعی	-2571
▁سنج	-2572
▁سکی	-2573
▁طاق	-2574
▁طول	-2575
▁عزت	-2576
▁لٹا	-2577
▁ماں	-2578
▁محب	-2579
▁معم	-2580
▁مغر	-2581
▁میک	-2582
▁نشۂ	-2583
▁وضع	-2584
▁پاؤ	-2585
▁چاپ	-2586
▁چوٹ	-2587
▁گور	-2588
▁انیس	-2589
▁اویں	-2590
▁اچھے	-2591
▁بساط	-2592
▁تباھ	-2593
▁جذبۂ	-2594
▁جھلک	-2595
▁جیسی	-2596
▁حسین	-2597
▁دفتر	-2598
▁دھرا	-2599
▁سجدھ	-2600
▁سلام	-2601
▁سنور	-2602
▁سکیں	-2603
▁شامل	-2604
▁شکوۂ	-2605
▁شیشے	-2606
▁ضمیر	-2607
▁غربت	-2608
▁فردا	-2609
▁قائل	-2610
▁قاصد	-2611
▁قیمت	-2612
▁لائی	-2613
▁مارے	-2614
▁مذھب	-2615
▁مرتے	-2616
▁موئے	-2617
▁نشتر	-2618
▁نمود	-2619
▁واقع	-2620
▁وحشی	-2621
▁پھرا	-2622
▁پھین	-2623
▁پیکر	-2624
▁چاھت	-2625
▁کرنی	-2626
▁کھڑا	-2627
▁کھڑے	-2628
▁گیسو	-2629
▁ابتدا	-2630
▁اداسی	-2631
▁ارباب	-2632
▁اسرار	-2633
▁اشارے	-2634
▁اشفتھ	-2635
▁افلاک	-2636
▁بتاؤں	-2637
▁بدلتے	-2638
▁بنائے	-2639
▁تشنگی	-2640
▁تعمیر	-2641
▁تھوڑا	-2642
▁تیرگی	-2643
▁دوسرا	-2644
▁زلفوں	-2645
▁ستارھ	-2646
▁سھارا	-2647
▁شکستھ	-2648
▁ضرورت	-2649
▁طوفان	-2650
▁طوفاں	-2651
▁عداوت	-2652
▁لگائے	-2653
▁محتسب	-2654
▁مختصر	-2655
▁مسئلھ	-2656
▁مقصود	-2657
▁ناشاد	-2658
▁چھاؤں	-2659
▁کشمکش	-2660
▁گلزار	-2661
▁ھنستے	-2662
▁ھوئیں	-2663
▁اشنائی	-2664
▁التفات	-2665
▁سمجھتا	-2666
▁پریشان	-2667
▁کھینچی	-2668
▁دیوانگی	-2669
▁رائیگاں	-2670
تھ	-2671
سے	-2672
عم	-2673
نو	-2674
وج	-2675
پن	-2676
چک	-2677
ڑھ	-2678
کل	-2679
ائر	-2680
ائم	-2681
الے	-2682
ریر	-2683
قین	-2684
واب	-2685
ڑتے	-2686
ڑکی	-2687
کاں	-2688
▁ٹل	-2689
اریخ	-2690
بتلا	-2691
داری	-2692
ستاخ	-2693
یانھ	-2694
▁الگ	-2695
▁بحث	-2696
▁تاج	-2697
▁تلے	-2698
▁ثمر	-2699
▁جنس	-2700
▁جھی	-2701
▁جیت	-2702
▁خسر	-2703
▁رزق	-2704
▁رضا	-2705
▁روک	-2706
▁سجا	-2707
▁سری	-2708
▁صھب	-2709
▁ظرف	-2710
▁عرص	-2711
▁مرح	-2712
▁مشر	-2713
▁معص	-2714
▁منظ	-2715
▁مور	-2716
▁مژھ	-2717
▁ناس	-2718
▁ناف	-2719
▁نذر	-2720
▁نقص	-2721
▁نین	-2722
▁ورق	-2723
▁کاٹ	-2724
▁گنگ	-2725
▁اسان	-2726
▁بادۂ	-2727
▁تراش	-2728
▁جادھ	-2729
▁جرات	-2730
▁حرام	-2731
▁خامھ	-2732
▁خلاف	-2733
▁خوشا	-2734
▁دانا	-2735
▁دیئے	-2736
▁رونق	-2737
▁رویا	-2738
▁رھزن	-2739
▁زانو	-2740
▁سراغ	-2741
▁سونا	-2742
▁شعاع	-2743
▁شیوۂ	-2744
▁طائر	-2745
▁عیسی	-2746
▁غارت	-2747
▁غنچۂ	-2748
▁فتنے	-2749
▁قائم	-2750
▁قصور	-2751
▁قطرۂ	-2752
▁مجلس	-2753
▁محال	-2754
▁محنت	-2755
▁مرھم	-2756
▁نئیں	-2757
▁نماز	-2758
▁ویسی	-2759
▁پکار	-2760
▁پھلی	-2761
▁چادر	-2762
▁چلتا	-2763
▁چلتے	-2764
▁چلنا	-2765
▁چھین	-2766
▁کاری	-2767
▁کافی	-2768
▁کامل	-2769
▁گوشۂ	-2770
▁اخبار	-2771
▁ازادی	-2772
▁اسباب	-2773
▁اندیش	-2774
▁ایماں	-2775
▁بدنام	-2776
▁برسوں	-2777
▁بھانے	-2778
▁تحریر	-2779
▁تسکیں	-2780
▁تمثال	-2781
▁توفیق	-2782
▁جانوں	-2783
▁جانیے	-2784
▁دوراں	-2785
▁روبرو	-2786
▁رکھوں	-2787
▁زخموں	-2788
▁لمحوں	-2789
▁لکھنا	-2790
▁مایوس	-2791
▁مبتلا	-2792
▁محبوب	-2793
▁مشھور	-2794
▁مھتاب	-2795
▁نشانی	-2796
▁نیازی	-2797
▁پیاسا	-2798
▁پیچھے	-2799
▁چاھتے	-2800
▁گستاخ	-2801
▁گمانی	-2802
▁احتیاط	-2803
▁افسانھ	-2804
▁اٹھایا	-2805
▁دکھایا	-2806
▁سمجھیں	-2807
▁محبتوں	-2808
▁معاملھ	-2809
▁ٹھکانے	-2810
▁کھلتیں	-2811
▁گریزاں	-2812
▁اندھیرے	-2813
▁دیوانوں	-2814
ئل	-2815
اڑ	-2816
تو	-2817
جب	-2818
جز	-2819
خر	-2820
زخ	-2821
فق	-2822
گل	-2823
یف	-2824
الع	-2825
اکش	-2826
برت	-2827
جیؔ	-2828
خاب	-2829
دوں	-2830
دیک	-2831
ریف	-2832
شکر	-2833
ندے	-2834
ھوں	-2835
▁بظ	-2836
▁تذ	-2837
▁ثب	-2838
▁حل	-2839
▁قم	-2840
▁مغ	-2841
▁مم	-2842
▁نع	-2843
▁وف	-2844
▁کث	-2845
ساری	-2846
ھادت	-2847
ھانی	-2848
▁افر	-2849
▁الٹ	-2850
▁بری	-2851
▁برے	-2852
▁بھم	-2853
▁بیت	-2854
▁تعب	-2855
▁جبر	-2856
▁جھگ	-2857
▁حصے	-2858
▁خری	-2859
▁دفن	-2860
▁دوش	-2861
▁رفو	-2862
▁ساق	-2863
▁سکو	-2864
▁سکھ	-2865
▁سیم	-2866
▁طفل	-2867
▁عرش	-2868
▁عین	-2869
▁فائ	-2870
▁مزے	-2871
▁معت	-2872
▁معر	-2873
▁معش	-2874
▁ناب	-2875
▁نبض	-2876
▁نقد	-2877
▁نگۂ	-2878
▁وام	-2879
▁پئے	-2880
▁پشت	-2881
▁پنج	-2882
▁چھٹ	-2883
▁کرب	-2884
▁گھا	-2885
▁گھھ	-2886
▁ابلھ	-2887
▁اوپر	-2888
▁بتاؤ	-2889
▁بخشا	-2890
▁بنتی	-2891
▁بچوں	-2892
▁بڑھے	-2893
▁بھشت	-2894
▁بھٹک	-2895
▁تارا	-2896
▁تشنۂ	-2897
▁جادۂ	-2898
▁جاوے	-2899
▁جلاد	-2900
▁حاضر	-2901
▁حدیث	-2902
▁حلقھ	-2903
▁خندۂ	-2904
▁خواں	-2905
▁دعوت	-2906
▁دوری	-2907
▁راھی	-2908
▁رکھی	-2909
▁رھوں	-2910
▁ریزھ	-2911
▁سینۂ	-2912
▁شادی	-2913
▁شانھ	-2914
▁شرار	-2915
▁شھرت	-2916
▁شیدا	-2917
▁طواف	-2918
▁عبرت	-2919
▁فروش	-2920
▁لشکر	-2921
▁مانی	-2922
▁معاف	-2923
▁ناخن	-2924
▁نکلی	-2925
▁ٹکرا	-2926
▁پاگل	-2927
▁پرور	-2928
▁پیری	-2929
▁چاھو	-2930
▁چلتی	-2931
▁چھلک	-2932
▁کھلو	-2933
▁کھیت	-2934
▁گاؤں	-2935
▁گونج	-2936
▁یقین	-2937
▁یکتا	-2938
▁یھیں	-2939
▁احساں	-2940
▁ارائی	-2941
▁انیسؔ	-2942
▁بتائے	-2943
▁برسات	-2944
▁بظاھر	-2945
▁تاریخ	-2946
▁تسکین	-2947
▁دھیان	-2948
▁دیجئے	-2949
▁دیوان	-2950
▁رکھنا	-2951
▁سلسلھ	-2952
▁سلیقھ	-2953
▁سنانے	-2954
▁سویدا	-2955
▁سیاست	-2956
▁شھادت	-2957
▁عریاں	-2958
▁عیسیٰ	-2959
▁قافلھ	-2960
▁قافلے	-2961
▁معصوم	-2962
▁منظور	-2963
▁ناجیؔ	-2964
▁نزدیک	-2965
▁نگاھی	-2966
▁پابند	-2967
▁پھرتی	-2968
▁کرشمھ	-2969
▁کشاکش	-2970
▁کیفیت	-2971
▁گزاری	-2972
▁ھشیار	-2973
▁ھوتیں	-2974
▁انتخاب	-2975
▁اندیشھ	-2976
▁خانماں	-2977
▁دروازھ	-2978
▁فقیروں	-2979
▁مستانھ	-2980
▁مسلماں	-2981
▁پشیماں	-2982
▁پیمانھ	-2983
▁گیسوئے	-2984
▁ھوائیں	-2985
▁مھربانی	-2986
جت	-2987
حۂ	-2988
غل	-2989
مع	-2990
یط	-2991
اھن	-2992
بدھ	-2993
خیز	-2994
داب	-2995
روف	-2996
سوب	-2997
سون	-2998
صاف	-2999
فاق	-3000
فیؔ	-3001
ماد	-3002
میا	-3003
وسی	-3004
چیں	-3005
ھرو	-3006
▁بق	-3007
▁خج	-3008
▁خر	-3009
اشاک	-3010
سانۂ	-3011
شتوں	-3012
وائے	-3013
ڑائی	-3014
▁اؤں	-3015
▁ابل	-3016
▁اصل	-3017
▁افق	-3018
▁انس	-3019
▁اڑی	-3020
▁اگا	-3021
▁بود	-3022
▁تاز	-3023
▁تان	-3024
▁تجر	-3025
▁توں	-3026
▁جاو	-3027
▁خلش	-3028
▁خیز	-3029
▁درپ	-3030
▁ذرے	-3031
▁سفی	-3032
▁سلو	-3033
▁سون	-3034
▁سڑک	-3035
▁شائ	-3036
▁شدت	-3037
▁شرح	-3038
▁شفا	-3039
▁طوط	-3040
▁عطا	-3041
▁علی	-3042
▁غرق	-3043
▁فخر	-3044
▁قدح	-3045
▁قطع	-3046
▁قلب	-3047
▁قھر	-3048
▁لچک	-3049
▁مئے	-3050
▁محر	-3051
▁مرض	-3052
▁مصح	-3053
▁ملو	-3054
▁مچل	-3055
▁نوم	-3056
▁وجد	-3057
▁ولو	-3058
▁پاش	-3059
▁پرا	-3060
▁پند	-3061
▁پوش	-3062
▁پھل	-3063
▁چھت	-3064
▁چھن	-3065
▁ڈبو	-3066
▁کشش	-3067
▁گھو	-3068
▁اجاڑ	-3069
▁اجڑے	-3070
▁اداب	-3071
▁اشوب	-3072
▁افزا	-3073
▁انچل	-3074
▁بانھ	-3075
▁بجھے	-3076
▁برنگ	-3077
▁بوند	-3078
▁بھرم	-3079
▁بینا	-3080
▁ثواب	-3081
▁جاری	-3082
▁جانو	-3083
▁جونؔ	-3084
▁جھنم	-3085
▁جیون	-3086
▁خسرو	-3087
▁خلوص	-3088
▁دانش	-3089
▁دلیل	-3090
▁دھول	-3091
▁راست	-3092
▁راکھ	-3093
▁رشتے	-3094
▁رعنا	-3095
▁رنجش	-3096
▁رھبر	-3097
▁زینت	-3098
▁سماں	-3099
▁سوزن	-3100
▁شعلے	-3101
▁شناس	-3102
▁شیشۂ	-3103
▁صلیب	-3104
▁طالع	-3105
▁عتاب	-3106
▁غالب	-3107
▁فسوں	-3108
▁لڑکا	-3109
▁ملال	-3110
▁مھلت	-3111
▁ناام	-3112
▁ناتم	-3113
▁ناوک	-3114
▁نباھ	-3115
▁نجات	-3116
▁وبال	-3117
▁پرتو	-3118
▁پڑیں	-3119
▁پگھل	-3120
▁پیھم	-3121
▁چلنے	-3122
▁چونک	-3123
▁ڈالا	-3124
▁ڈرتا	-3125
▁کاوش	-3126
▁کثرت	-3127
▁کنار	-3128
▁گمان	-3129
▁گھون	-3130
▁ھنسا	-3131
▁استاں	-3132
▁اشارھ	-3133
▁اشکار	-3134
▁انگشت	-3135
▁اوقات	-3136
▁برھمن	-3137
▁بیزار	-3138
▁تسخیر	-3139
▁حیران	-3140
▁خاشاک	-3141
▁خموشی	-3142
▁رسائی	-3143
▁روانی	-3144
▁روداد	-3145
▁رکھتی	-3146
▁زبانی	-3147
▁ساقیا	-3148
▁سرشار	-3149
▁سمجھو	-3150
▁سنائی	-3151
▁سیلاب	-3152
▁شوخیٔ	-3153
▁فاصلھ	-3154
▁فراغت	-3155
▁فشانی	-3156
▁قدموں	-3157
▁لفظوں	-3158
▁محسوس	-3159
▁مراسم	-3160
▁معشوق	-3161
▁معمور	-3162
▁منسوب	-3163
▁نادان	-3164
▁نکلیں	-3165
▁واقعھ	-3166
▁پرانے	-3167
▁پرستی	-3168
▁پچھتا	-3169
▁چاھیں	-3170
▁چھروں	-3171
▁گزرتا	-3172
▁اعتماد	-3173
▁امتیاز	-3174
▁امیدیں	-3175
▁بھاروں	-3176
▁بیگانے	-3177
▁خریدار	-3178
▁دکھائے	-3179
▁رقیبوں	-3180
▁شرمندھ	-3181
▁پیراھن	-3182
▁چھپائے	-3183
▁کھینچا	-3184
▁انگڑائی	-3185
▁دیواروں	-3186
▁پارسائی	-3187
با	-3188
حق	-3189
خل	-3190
دل	-3191
دن	-3192
سن	-3193
طق	-3194
عھ	-3195
نش	-3196
پس	-3197
کن	-3198
یم	-3199
بوں	-3200
تھی	-3201
حبا	-3202
راک	-3203
ردھ	-3204
ریز	-3205
صیر	-3206
لیخ	-3207
ماس	-3208
کشی	-3209
گوں	-3210
گیں	-3211
یرا	-3212
▁حب	-3213
▁خد	-3214
▁سح	-3215
▁عص	-3216
▁غز	-3217
▁مخ	-3218
▁مڑ	-3219
▁ٹی	-3220
▁پے	-3221
▁چن	-3222
▁یگ	-3223
رومی	-3224
نداں	-3225
ڑیوں	-3226
▁آیا	-3227
▁ابد	-3228
▁امر	-3229
▁اوج	-3230
▁اڑے	-3231
▁باھ	-3232
▁بھن	-3233
▁بھھ	-3234
▁جھن	-3235
▁جھپ	-3236
▁حکا	-3237
▁حید	-3238
▁حیف	-3239
▁خطر	-3240
▁خلد	-3241
▁خوا	-3242
▁دبا	-3243
▁ربا	-3244
▁ردا	-3245
▁رسا	-3246
▁روی	-3247
▁ریش	-3248
▁زاد	-3249
▁سلگ	-3250
▁شغل	-3251
▁عرف	-3252
▁عرق	-3253
▁عند	-3254
▁غور	-3255
▁فرش	-3256
▁فرض	-3257
▁فری	-3258
▁فھم	-3259
▁قاب	-3260
▁لوح	-3261
▁مکت	-3262
▁مکھ	-3263
▁میز	-3264
▁نسخ	-3265
▁نشی	-3266
▁واب	-3267
▁وقف	-3268
▁ووں	-3269
▁پیے	-3270
▁کاف	-3271
▁کلا	-3272
▁کنج	-3273
▁کٹے	-3274
▁گلو	-3275
▁ھلا	-3276
▁ھما	-3277
▁استخ	-3278
▁اچھل	-3279
▁بتلا	-3280
▁بزرگ	-3281
▁بندی	-3282
▁بٹھا	-3283
▁بھتا	-3284
▁بھتے	-3285
▁بھلی	-3286
▁بھیڑ	-3287
▁بیان	-3288
▁تارے	-3289
▁تعجب	-3290
▁توقع	-3291
▁توڑا	-3292
▁تھام	-3293
▁ثابت	-3294
▁جتنی	-3295
▁جلتا	-3296
▁جھوم	-3297
▁حاجت	-3298
▁حواس	-3299
▁حوصل	-3300
▁خستھ	-3301
▁خطرے	-3302
▁خیمے	-3303
▁دائم	-3304
▁دوزخ	-3305
▁دھلی	-3306
▁رفیق	-3307
▁زلیخ	-3308
▁زوال	-3309
▁سایا	-3310
▁سبزۂ	-3311
▁سننے	-3312
▁سوتے	-3313
▁سپرد	-3314
▁شورش	-3315
▁شکیب	-3316
▁شگفت	-3317
▁صھبا	-3318
▁طریق	-3319
▁عاجز	-3320
▁عباد	-3321
▁غمزھ	-3322
▁غنچے	-3323
▁لھجے	-3324
▁ماضی	-3325
▁محیط	-3326
▁مدعی	-3327
▁مقدم	-3328
▁مندر	-3329
▁موجۂ	-3330
▁موسی	-3331
▁نکتھ	-3332
▁وادی	-3333
▁وارد	-3334
▁ٹوٹی	-3335
▁پارھ	-3336
▁پیتے	-3337
▁پیشھ	-3338
▁چشمۂ	-3339
▁ڈوبا	-3340
▁کردھ	-3341
▁کلفت	-3342
▁کوتا	-3343
▁گرفت	-3344
▁گھرے	-3345
▁اترتا	-3346
▁ادائے	-3347
▁ارائش	-3348
▁ارادھ	-3349
▁ارماں	-3350
▁استیں	-3351
▁اسیری	-3352
▁الفاظ	-3353
▁اکیلے	-3354
▁برھنھ	-3355
▁بھانھ	-3356
▁بھولی	-3357
▁بھیجی	-3358
▁تاریک	-3359
▁تعبیر	-3360
▁تقریر	-3361
▁جاوید	-3362
▁جذبات	-3363
▁جلائے	-3364
▁جولاں	-3365
▁حوادث	-3366
▁درواز	-3367
▁دلبری	-3368
▁دنداں	-3369
▁دھوکے	-3370
▁راھوں	-3371
▁رھائی	-3372
▁زلفیں	-3373
▁سوائے	-3374
▁سوختھ	-3375
▁شرارت	-3376
▁صفائی	-3377
▁عنوان	-3378
▁فائدھ	-3379
▁فردوس	-3380
▁فسانے	-3381
▁محروم	-3382
▁مرحبا	-3383
▁مصروف	-3384
▁مژگان	-3385
▁مھمان	-3386
▁ناچار	-3387
▁نکالے	-3388
▁ویران	-3389
▁پائیں	-3390
▁پرستش	-3391
▁پکارے	-3392
▁پھونک	-3393
▁پیاری	-3394
▁پیاسے	-3395
▁پیشتر	-3396
▁پیماں	-3397
▁کانوں	-3398
▁کیجئے	-3399
▁گزرنے	-3400
▁گھروں	-3401
▁یاراں	-3402
▁افسانے	-3403
▁اٹھانے	-3404
▁باغباں	-3405
▁بانھوں	-3406
▁بھروسا	-3407
▁جھونکا	-3408
▁حسینوں	-3409
▁دریائے	-3410
▁زمینوں	-3411
▁سیکڑوں	-3412
▁فرشتوں	-3413
▁لگائیں	-3414
▁محرومی	-3415
▁مصحفیؔ	-3416
▁منزلیں	-3417
▁ویرانھ	-3418
▁پھچانے	-3419
▁ڈھونڈا	-3420
▁کھینچے	-3421
▁کیونکھ	-3422
▁اندھیوں	-3423
▁انگلیاں	-3424
▁تماشائی	-3425
▁خاکساری	-3426
▁خواھشوں	-3427
▁اندھیروں	-3428
رس	-3429
شد	-3430
شھ	-3431
طل	-3432
فھ	-3433
گے	-3434
ارۂ	-3435
ازم	-3436
الت	-3437
اوت	-3438
اکت	-3439
بیح	-3440
بیٰ	-3441
بیں	-3442
تاد	-3443
توں	-3444
تیٔ	-3445
جرا	-3446
دود	-3447
شنا	-3448
صیل	-3449
طنت	-3450
فاک	-3451
نیں	-3452
وفی	-3453
ھیر	-3454
ھیز	-3455
یئے	-3456
یسا	-3457
▁رض	-3458
▁رل	-3459
▁رے	-3460
▁سط	-3461
▁شش	-3462
▁ند	-3463
▁وے	-3464
▁ھٹ	-3465
بوری	-3466
رافت	-3467
زائے	-3468
فشاں	-3469
واری	-3470
وانی	-3471
کاری	-3472
یانی	-3473
▁اجڑ	-3474
▁ارے	-3475
▁اپس	-3476
▁باش	-3477
▁برف	-3478
▁بسی	-3479
▁بور	-3480
▁بچے	-3481
▁تاک	-3482
▁تھھ	-3483
▁جال	-3484
▁جاھ	-3485
▁جزا	-3486
▁جنا	-3487
▁جھا	-3488
▁دوپ	-3489
▁ذلت	-3490
▁رمز	-3491
▁روپ	-3492
▁ریا	-3493
▁زنگ	-3494
▁سات	-3495
▁سلا	-3496
▁سمٹ	-3497
▁سوگ	-3498
▁صحن	-3499
▁صفت	-3500
▁صند	-3501
▁طوق	-3502
▁عزم	-3503
▁فدا	-3504
▁فزا	-3505
▁لبی	-3506
▁لرز	-3507
▁لپٹ	-3508
▁لڑک	-3509
▁مصر	-3510
▁معا	-3511
▁مول	-3512
▁نرا	-3513
▁نزع	-3514
▁نمی	-3515
▁نوک	-3516
▁نیس	-3517
▁نیل	-3518
▁ٹھی	-3519
▁چوم	-3520
▁چھل	-3521
▁چھڑ	-3522
▁چیخ	-3523
▁ڈرا	-3524
▁کنع	-3525
▁کیں	-3526
▁گرے	-3527
▁ھمھ	-3528
اندگی	-3529
▁ائنے	-3530
▁اتار	-3531
▁اثار	-3532
▁افاق	-3533
▁امام	-3534
▁اماں	-3535
▁اوڑھ	-3536
▁باسی	-3537
▁بالا	-3538
▁بانٹ	-3539
▁بخشش	-3540
▁بخشے	-3541
▁بدلی	-3542
▁بندے	-3543
▁بچپن	-3544
▁بچھا	-3545
▁بھگو	-3546
▁بیتے	-3547
▁بیدل	-3548
▁بینی	-3549
▁تذکر	-3550
▁توبھ	-3551
▁تپاک	-3552
▁تھکن	-3553
▁تیار	-3554
▁تیرھ	-3555
▁ثبات	-3556
▁جاود	-3557
▁جاگے	-3558
▁جلتی	-3559
▁جوئی	-3560
▁جھلم	-3561
▁حریم	-3562
▁حلقے	-3563
▁حکمت	-3564
▁حیدر	-3565
▁خاکی	-3566
▁خبری	-3567
▁خموش	-3568
▁دستک	-3569
▁دکھے	-3570
▁راضی	-3571
▁رنگی	-3572
▁روکے	-3573
▁زمزم	-3574
▁سرشک	-3575
▁سرما	-3576
▁سفاک	-3577
▁شانے	-3578
▁شعار	-3579
▁صفات	-3580
▁صوفی	-3581
▁طاعت	-3582
▁طرفھ	-3583
▁طوطی	-3584
▁عرصۂ	-3585
▁غزال	-3586
▁فانی	-3587
▁فتنۂ	-3588
▁فرنگ	-3589
▁فشاں	-3590
▁قابو	-3591
▁قمری	-3592
▁لاتا	-3593
▁لازم	-3594
▁لکھے	-3595
▁مجمع	-3596
▁محمل	-3597
▁مدام	-3598
▁مردم	-3599
▁مریض	-3600
▁مسلم	-3601
▁مصور	-3602
▁مطرب	-3603
▁مقصد	-3604
▁مولا	-3605
▁مٹھی	-3606
▁مکرر	-3607
▁مکیں	-3608
▁نغمے	-3609
▁نقشھ	-3610
▁نوحھ	-3611
▁نوید	-3612
▁نکھر	-3613
▁واقف	-3614
▁واپس	-3615
▁ٹھنڈ	-3616
▁پتوں	-3617
▁پنجۂ	-3618
▁پڑتی	-3619
▁پڑتے	-3620
▁پھاڑ	-3621
▁چرچا	-3622
▁چلیں	-3623
▁چمکا	-3624
▁چھری	-3625
▁ڈالی	-3626
▁کاٹے	-3627
▁کاکل	-3628
▁کباب	-3629
▁کعبے	-3630
▁کماں	-3631
▁کمرے	-3632
▁گاھے	-3633
▁گریۂ	-3634
▁گشتھ	-3635
▁گلوں	-3636
▁گواھ	-3637
▁ھلاک	-3638
▁ھندو	-3639
▁یکسر	-3640
▁اشارا	-3641
▁افشاں	-3642
▁التجا	-3643
▁انصاف	-3644
▁اٹھاؤ	-3645
▁اپنوں	-3646
▁بالیں	-3647
▁بتاتے	-3648
▁بدلنے	-3649
▁برائی	-3650
▁بلائے	-3651
▁بندوں	-3652
▁بھنور	-3653
▁بھولا	-3654
▁تسبیح	-3655
▁جھوٹا	-3656
▁جھگڑا	-3657
▁حادثھ	-3658
▁حوصلے	-3659
▁حکایت	-3660
▁خدایا	-3661
▁خواری	-3662
▁خونیں	-3663
▁دامان	-3664
▁داماں	-3665
▁درباں	-3666
▁درویش	-3667
▁دستار	-3668
▁ربائی	-3669
▁رشتوں	-3670
▁روئیں	-3671
▁رکھنے	-3672
▁زلیخا	-3673
▁سامنا	-3674
▁ستائش	-3675
▁سرگرم	-3676
▁سلطنت	-3677
▁سنوار	-3678
▁سوئیں	-3679
▁سیاھی	-3680
▁سیماب	-3681
▁شرافت	-3682
▁عبادت	-3683
▁عنواں	-3684
▁غمگیں	-3685
▁فسانا	-3686
▁لگانا	-3687
▁لگانے	-3688
▁ماجرا	-3689
▁مضموں	-3690
▁معانی	-3691
▁موسیٰ	-3692
▁میداں	-3693
▁ناخدا	-3694
▁نزاکت	-3695
▁نشیمن	-3696
▁نظروں	-3697
▁نھایت	-3698
▁ولولے	-3699
▁پرانا	-3700
▁پرانی	-3701
▁پرھیز	-3702
▁پھروں	-3703
▁پھینک	-3704
▁چاھنے	-3705
▁چھوڑے	-3706
▁کشادھ	-3707
▁کنارھ	-3708
▁کھائے	-3709
▁کھانے	-3710
▁کھویا	-3711
▁کیمیا	-3712
▁گرمیٔ	-3713
▁ھنسنے	-3714
▁اٹھائی	-3715
▁بستیاں	-3716
▁بھیگتا	-3717
▁تمنائے	-3718
▁خداوند	-3719
▁خرابات	-3720
▁خودکشی	-3721
▁خیالوں	-3722
▁دشمنوں	-3723
▁دکھاتی	-3724
▁سانسوں	-3725
▁شبستاں	-3726
▁شوریدھ	-3727
▁عندلیب	-3728
▁فضائیں	-3729
▁مھربان	-3730
▁ناتواں	-3731
▁نادانی	-3732
▁ناگھاں	-3733
▁پوچھوں	-3734
▁پیمانے	-3735
▁کتابوں	-3736
▁ھوشیار	-3737
▁افسردگی	-3738
▁اٹھائیے	-3739
▁بیگانگی	-3740
▁تقاضائے	-3741
▁تماشائے	-3742
▁سمندروں	-3743
▁فرمائیے	-3744
▁مسیحائی	-3745
▁گرفتاری	-3746
▁ڈھونڈھتا	-3747
ؤس	-3748
ئق	-3749
بد	-3750
حد	-3751
دت	-3752
زد	-3753
شا	-3754
ضو	-3755
فع	-3756
قل	-3757
قو	-3758
مد	-3759
نس	-3760
پی	-3761
چی	-3762
کت	-3763
گن	-3764
ابا	-3765
اکم	-3766
جھی	-3767
ذور	-3768
زوں	-3769
ستئ	-3770
فیت	-3771
قوب	-3772
لسل	-3773
لوب	-3774
لیل	-3775
لیم	-3776
لیے	-3777
ناک	-3778
واھ	-3779
ومت	-3780
چوں	-3781
ڑھا	-3782
ڑھے	-3783
کتے	-3784
کنے	-3785
گیز	-3786
ھوس	-3787
یات	-3788
▁تف	-3789
▁طن	-3790
▁عظ	-3791
▁فض	-3792
▁وش	-3793
مرود	-3794
نائے	-3795
نیاں	-3796
گاری	-3797
یازھ	-3798
▁امن	-3799
▁انچ	-3800
▁اکس	-3801
▁اگل	-3802
▁باک	-3803
▁بدر	-3804
▁بدم	-3805
▁بغل	-3806
▁بکف	-3807
▁بھڑ	-3808
▁بیش	-3809
▁جلد	-3810
▁جھت	-3811
▁خشت	-3812
▁دبے	-3813
▁رام	-3814
▁راگ	-3815
▁رسن	-3816
▁روگ	-3817
▁رکے	-3818
▁زعم	-3819
▁زود	-3820
▁زھد	-3821
▁سبق	-3822
▁سلط	-3823
▁سمی	-3824
▁شفق	-3825
▁صدق	-3826
▁صدم	-3827
▁عجم	-3828
▁غری	-3829
▁فار	-3830
▁فتح	-3831
▁فرز	-3832
▁قمر	-3833
▁قوت	-3834
▁لحد	-3835
▁محل	-3836
▁مدا	-3837
▁مدح	-3838
▁مدد	-3839
▁مفل	-3840
▁مھی	-3841
▁ناپ	-3842
▁نخل	-3843
▁نیت	-3844
▁نیش	-3845
▁وصف	-3846
▁پتے	-3847
▁چلن	-3848
▁چون	-3849
▁چٹک	-3850
▁کاس	-3851
▁کال	-3852
▁کجا	-3853
▁کود	-3854
▁کھن	-3855
▁کھٹ	-3856
تھیلی	-3857
▁آشنا	-3858
▁ائین	-3859
▁ابگی	-3860
▁اخلا	-3861
▁ادھی	-3862
▁ارسی	-3863
▁استع	-3864
▁استغ	-3865
▁امان	-3866
▁امیر	-3867
▁اونچ	-3868
▁اڑتی	-3869
▁اڑتے	-3870
▁اڑنے	-3871
▁اگلے	-3872
▁اھیں	-3873
▁باطل	-3874
▁باطن	-3875
▁بخشی	-3876
▁برسا	-3877
▁بناؤ	-3878
▁بندۂ	-3879
▁بولا	-3880
▁بچئے	-3881
▁بگڑی	-3882
▁بھڑک	-3883
▁بھیس	-3884
▁تئیں	-3885
▁تجھی	-3886
▁تڑپا	-3887
▁تیور	-3888
▁جامۂ	-3889
▁جلدی	-3890
▁جلنے	-3891
▁جگنو	-3892
▁جیتا	-3893
▁حاکم	-3894
▁خراش	-3895
▁خطاب	-3896
▁خلقت	-3897
▁درجھ	-3898
▁دروں	-3899
▁دریغ	-3900
▁دوام	-3901
▁دکان	-3902
▁دکاں	-3903
▁دھنک	-3904
▁دیگر	-3905
▁زاری	-3906
▁زخمی	-3907
▁سائل	-3908
▁سانپ	-3909
▁سحری	-3910
▁سروں	-3911
▁سلوک	-3912
▁سننا	-3913
▁سوئی	-3914
▁سوار	-3915
▁شکوے	-3916
▁صندل	-3917
▁طاؤس	-3918
▁طلبی	-3919
▁ظھور	-3920
▁عشوھ	-3921
▁عقدھ	-3922
▁عقدۂ	-3923
▁عناں	-3924
▁عیاں	-3925
▁قالب	-3926
▁قبلھ	-3927
▁قلزم	-3928
▁لھجھ	-3929
▁لیتی	-3930
▁مانے	-3931
▁مجسم	-3932
▁محتا	-3933
▁مسرت	-3934
▁مسکر	-3935
▁مشرب	-3936
▁مشیت	-3937
▁مضام	-3938
▁مطلق	-3939
▁مغاں	-3940
▁منکر	-3941
▁منیں	-3942
▁مھکی	-3943
▁مھکے	-3944
▁ندیم	-3945
▁نگری	-3946
▁والی	-3947
▁وفاد	-3948
▁ویسا	-3949
▁پارۂ	-3950
▁پناھ	-3951
▁پنبھ	-3952
▁پوری	-3953
▁پڑھا	-3954
▁پھلا	-3955
▁پینے	-3956
▁چڑھا	-3957
▁ڈالے	-3958
▁ڈھال	-3959
▁کانپ	-3960
▁کشتۂ	-3961
▁کلیم	-3962
▁کوثر	-3963
▁کوچھ	-3964
▁کٹھن	-3965
▁کھود	-3966
▁کھٹک	-3967
▁کھیو	-3968
▁گرتے	-3969
▁گریز	-3970
▁گسار	-3971
▁گوئی	-3972
▁ھلال	-3973
▁ھونٹ	-3974
▁اسانی	-3975
▁استاد	-3976
▁الجھا	-3977
▁امکاں	-3978
▁اندوھ	-3979
▁انگیز	-3980
▁بجائے	-3981
▁بغاوت	-3982
▁بنانے	-3983
▁بوریا	-3984
▁بولتا	-3985
▁بچھڑے	-3986
▁تاخیر	-3987
▁تقریب	-3988
▁جانئے	-3989
▁جاگتا	-3990
▁جراحت	-3991
▁جواھر	-3992
▁حکومت	-3993
▁حیدرؔ	-3994
▁حیواں	-3995
▁خانوں	-3996
▁درپیش	-3997
▁دوستو	-3998
▁دھائی	-3999
▁دھرتی	-4000
▁دھیرے	-4001
▁رنجور	-4002
▁زلفاں	-4003
▁سجانے	-4004
▁سراسر	-4005
▁سرکار	-4006
▁سنائے	-4007
▁سواری	-4008
▁سوچوں	-4009
▁سکندر	-4010
▁سھارے	-4011
▁سیکھا	-4012
▁شاخوں	-4013
▁شرمند	-4014
▁شعلوں	-4015
▁شمعیں	-4016
▁شیفتھ	-4017
▁عافیت	-4018
▁عربدھ	-4019
▁عقبیٰ	-4020
▁فاصلے	-4021
▁فضاؤں	-4022
▁قلندر	-4023
▁لائیں	-4024
▁لبریز	-4025
▁لکھتا	-4026
▁لکھتے	-4027
▁ماتھے	-4028
▁مانوس	-4029
▁محابا	-4030
▁مرحلھ	-4031
▁مسلسل	-4032
▁معذور	-4033
▁مغرور	-4034
▁مھماں	-4035
▁میکدے	-4036
▁نارسا	-4037
▁ناموس	-4038
▁ندامت	-4039
▁نمرود	-4040
▁نوائی	-4041
▁نکلنے	-4042
▁نھانی	-4043
▁پرندے	-4044
▁پرچھا	-4045
▁پلکیں	-4046
▁پچھلے	-4047
▁پیالھ	-4048
▁پیروں	-4049
▁پیوند	-4050
▁پیڑوں	-4051
▁چاھوں	-4052
▁چمکتی	-4053
▁چڑھتے	-4054
▁چھائی	-4055
▁چھوٹا	-4056
▁چھوڑی	-4057
▁کوسوں	-4058
▁کھوئے	-4059
▁کھوتی	-4060
▁کھولے	-4061
▁کھونے	-4062
▁کھڑکی	-4063
▁گزرتے	-4064
▁گزریں	-4065
▁گلابی	-4066
▁گنگنا	-4067
▁گھونٹ	-4068
▁یاران	-4069
▁یعقوب	-4070
▁اجزائے	-4071
▁ارزوئے	-4072
▁ازمانے	-4073
▁اسمانی	-4074
▁اٹھاتے	-4075
▁اٹھانا	-4076
▁بتائیں	-4077
▁بلائیں	-4078
▁بکھرنے	-4079
▁بھلائی	-4080
▁بیماری	-4081
▁بینائی	-4082
▁جفائیں	-4083
▁خمیازھ	-4084
▁دروازے	-4085
▁دکھاتا	-4086
▁دکھانے	-4087
▁دھڑکتا	-4088
▁رازداں	-4089
▁راستوں	-4090
▁رعنائی	-4091
▁سانسیں	-4092
▁سمجھنے	-4093
▁سنائیں	-4094
▁سودائے	-4095
▁صحرائے	-4096
▁صدائیں	-4097
▁فروزاں	-4098
▁قربتیں	-4099
▁ماھتاب	-4100
▁مجبوری	-4101
▁مینائے	-4102
▁ناتمام	-4103
▁نازنیں	-4104
▁نمایاں	-4105
▁نومیدی	-4106
▁واردات	-4107
▁وسعتیں	-4108
▁ویرانے	-4109
▁پتھروں	-4110
▁پوچھنے	-4111
▁پوچھیں	-4112
▁پیشانی	-4113
▁ڈھونڈے	-4114
▁کھولتے	-4115
▁گریبان	-4116
▁گناھوں	-4117
▁ھتھیلی	-4118
▁ھنگامۂ	-4119
▁یادگار	-4120
▁استخواں	-4121
▁اندھیرا	-4122
▁خوابیدھ	-4123
▁دکھائیں	-4124
▁شادمانی	-4125
▁کھینچتا	-4126
▁گھٹائیں	-4127
ئن	-4128
اظ	-4129
بل	-4130
بۂ	-4131
ذا	-4132
زش	-4133
سپ	-4134
صی	-4135
طھ	-4136
کو	-4137
ائب	-4138
اسی	-4139
انع	-4140
تار	-4141
تھر	-4142
حاں	-4143
ختن	-4144
خود	-4145
دور	-4146
زیں	-4147
ستے	-4148
شاھ	-4149
فوظ	-4150
قوف	-4151
قیق	-4152
لاط	-4153
مئن	-4154
موں	-4155
میل	-4156
ندی	-4157
واۓ	-4158
وبی	-4159
ودھ	-4160
پاس	-4161
چسپ	-4162
ڈھا	-4163
کوں	-4164
گاف	-4165
ھقھ	-4166
یسر	-4167
▁بع	-4168
▁سد	-4169
▁عل	-4170
▁عم	-4171
▁فو	-4172
▁لغ	-4173
▁مچ	-4174
▁پج	-4175
▁چب	-4176
▁چٹ	-4177
▁چک	-4178
▁ڈس	-4179
▁یو	-4180
ئمال	-4181
ارات	-4182
امات	-4183
انیٔ	-4184
بارت	-4185
تادھ	-4186
خشاں	-4187
دگاں	-4188
شائے	-4189
شاھی	-4190
صورت	-4191
عتوں	-4192
علان	-4193
ندوں	-4194
نگوں	-4195
وجود	-4196
ڈھال	-4197
▁اشت	-4198
▁امل	-4199
▁بشک	-4200
▁بنو	-4201
▁بیب	-4202
▁بیض	-4203
▁تعز	-4204
▁تھر	-4205
▁تین	-4206
▁جاے	-4207
▁جزو	-4208
▁جگم	-4209
▁جھج	-4210
▁جھر	-4211
▁جھل	-4212
▁خاں	-4213
▁خلا	-4214
▁خلل	-4215
▁داں	-4216
▁دخل	-4217
▁دھق	-4218
▁رخی	-4219
▁رست	-4220
▁رکی	-4221
▁رھز	-4222
▁زھے	-4223
▁سبو	-4224
▁سپر	-4225
▁سھھ	-4226
▁شھھ	-4227
▁صدف	-4228
▁ضرر	-4229
▁طعن	-4230
▁طنز	-4231
▁عطر	-4232
▁فسر	-4233
▁فقر	-4234
▁فلس	-4235
▁قصد	-4236
▁قصر	-4237
▁قصۂ	-4238
▁لاگ	-4239
▁لگن	-4240
▁محک	-4241
▁مدف	-4242
▁معج	-4243
▁مٹے	-4244
▁مژۂ	-4245
▁میل	-4246
▁نخچ	-4247
▁ندا	-4248
▁نھا	-4249
▁ٹان	-4250
▁پاۓ	-4251
▁پکڑ	-4252
▁پیو	-4253
▁چیں	-4254
▁کتر	-4255
▁کدۂ	-4256
▁کڑی	-4257
▁گال	-4258
▁ھرن	-4259
▁ھیچ	-4260
مانوں	-4261
ھروان	-4262
▁ائیے	-4263
▁اترے	-4264
▁اختر	-4265
▁اخیر	-4266
▁اذیت	-4267
▁انھی	-4268
▁اگاھ	-4269
▁اھنگ	-4270
▁ایما	-4271
▁باھم	-4272
▁بلکھ	-4273
▁بوسۂ	-4274
▁بوسے	-4275
▁بھلے	-4276
▁بیکر	-4277
▁تربت	-4278
▁تنگئ	-4279
▁ثانی	-4280
▁جایا	-4281
▁حائل	-4282
▁خارا	-4283
▁خالق	-4284
▁خامۂ	-4285
▁دادھ	-4286
▁دارا	-4287
▁دھان	-4288
▁رائے	-4289
▁رانی	-4290
▁رومی	-4291
▁رھین	-4292
▁ریشھ	-4293
▁سازی	-4294
▁سبحھ	-4295
▁ستاں	-4296
▁سجدے	-4297
▁سعیٔ	-4298
▁سناں	-4299
▁سنوں	-4300
▁سواد	-4301
▁سویا	-4302
▁سیکھ	-4303
▁شامت	-4304
▁شوخئ	-4305
▁شیوھ	-4306
▁صفحۂ	-4307
▁عارف	-4308
▁عالی	-4309
▁عروس	-4310
▁عظمت	-4311
▁عیار	-4312
▁غموں	-4313
▁فارغ	-4314
▁فسون	-4315
▁فگار	-4316
▁قطرے	-4317
▁قھقھ	-4318
▁لائق	-4319
▁لاتے	-4320
▁لاوے	-4321
▁لحاظ	-4322
▁لمبی	-4323
▁لکیر	-4324
▁ماھی	-4325
▁مذاق	-4326
▁مرضی	-4327
▁مغرب	-4328
▁ملیے	-4329
▁مندی	-4330
▁منطق	-4331
▁مٹنے	-4332
▁مکتب	-4333
▁نادم	-4334
▁نامۂ	-4335
▁نامی	-4336
▁نسخھ	-4337
▁نظام	-4338
▁نغمۂ	-4339
▁نوبت	-4340
▁نیکی	-4341
▁ٹھیک	-4342
▁پردا	-4343
▁پھوٹ	-4344
▁پھوڑ	-4345
▁چھوٹ	-4346
▁چھٹا	-4347
▁ڈوبے	-4348
▁ڈھلے	-4349
▁کائی	-4350
▁کانچ	-4351
▁کراں	-4352
▁کشاں	-4353
▁کلاھ	-4354
▁کمان	-4355
▁کمیں	-4356
▁کٹتی	-4357
▁گرمئ	-4358
▁گروں	-4359
▁گنبد	-4360
▁گنتی	-4361
▁گھوم	-4362
▁ھارے	-4363
▁ھستئ	-4364
▁اتشیں	-4365
▁احرام	-4366
▁ادراک	-4367
▁ارادے	-4368
▁ارزاں	-4369
▁ازردھ	-4370
▁اعلان	-4371
▁الودھ	-4372
▁امادھ	-4373
▁انجان	-4374
▁انگلی	-4375
▁اوراق	-4376
▁اکسیر	-4377
▁برکھا	-4378
▁بلندی	-4379
▁بولیں	-4380
▁بچاتے	-4381
▁بڑھتے	-4382
▁بگڑتا	-4383
▁بھائے	-4384
▁بھاگے	-4385
▁بیکار	-4386
▁تجربھ	-4387
▁تعریف	-4388
▁تقصیر	-4389
▁تمکیں	-4390
▁تکمیل	-4391
▁جلاتے	-4392
▁جلانا	-4393
▁جلایا	-4394
▁جلوھٔ	-4395
▁جمعیت	-4396
▁حوصلۂ	-4397
▁خزانھ	-4398
▁خوانی	-4399
▁دربار	-4400
▁دریچے	-4401
▁دسترس	-4402
▁دعواۓ	-4403
▁دلچسپ	-4404
▁دوپھر	-4405
▁دھلیز	-4406
▁دھڑکن	-4407
▁راھیں	-4408
▁رضواں	-4409
▁رندان	-4410
▁رنداں	-4411
▁رکھیں	-4412
▁زیارت	-4413
▁سریجن	-4414
▁سفینھ	-4415
▁سنسان	-4416
▁سوزاں	-4417
▁سوچیں	-4418
▁سیدھی	-4419
▁شاداب	-4420
▁شرابی	-4421
▁شھروں	-4422
▁صداقت	-4423
▁عبارت	-4424
▁عرفاں	-4425
▁فراھم	-4426
▁فریبی	-4427
▁لرزاں	-4428
▁لڑائی	-4429
▁لگایا	-4430
▁مانتا	-4431
▁مانگا	-4432
▁محدود	-4433
▁محفوظ	-4434
▁مسافت	-4435
▁مضطرب	-4436
▁مطمئن	-4437
▁مقتول	-4438
▁موقوف	-4439
▁میدان	-4440
▁ناسزا	-4441
▁نشانھ	-4442
▁نظارے	-4443
▁نوازی	-4444
▁نڈھال	-4445
▁وفائے	-4446
▁ٹھکرا	-4447
▁پندار	-4448
▁پھنچی	-4449
▁پھیلا	-4450
▁پیاسی	-4451
▁پیکان	-4452
▁چمکتا	-4453
▁چھاتی	-4454
▁چھوٹے	-4455
▁ڈالیں	-4456
▁ڈوبتے	-4457
▁ڈوبنے	-4458
▁کربلا	-4459
▁کردار	-4460
▁کرشمے	-4461
▁کلیسا	-4462
▁کنارے	-4463
▁کنعاں	-4464
▁کھاتے	-4465
▁کھسار	-4466
▁کھلتی	-4467
▁کھلنے	-4468
▁کھٹکا	-4469
▁گزارے	-4470
▁گزرنا	-4471
▁گلچیں	-4472
▁ائینھٔ	-4473
▁احتیاج	-4474
▁ادھورا	-4475
▁استوار	-4476
▁اشیانھ	-4477
▁افسانۂ	-4478
▁افشانی	-4479
▁اندھیر	-4480
▁باوجود	-4481
▁بستیوں	-4482
▁بھاراں	-4483
▁بھلائے	-4484
▁بھلانے	-4485
▁بھولیں	-4486
▁بیابان	-4487
▁بیداری	-4488
▁بیٹھنا	-4489
▁بیٹھیں	-4490
▁بیگانۂ	-4491
▁تاریکی	-4492
▁حجابوں	-4493
▁خواھاں	-4494
▁خوشیوں	-4495
▁دنیائے	-4496
▁رفتگاں	-4497
▁سنوارے	-4498
▁سودائی	-4499
▁سپردگی	-4500
▁شائستھ	-4501
▁شرمسار	-4502
▁محفلیں	-4503
▁منزلوں	-4504
▁موسموں	-4505
▁ناصبور	-4506
▁ناکامی	-4507
▁نشینوں	-4508
▁نیستاں	-4509
▁وابستھ	-4510
▁ٹھکانھ	-4511
▁پائمال	-4512
▁پوچھئے	-4513
▁پھچانا	-4514
▁چنگاری	-4515
▁چھوڑیں	-4516
▁چھپانا	-4517
▁کتابیں	-4518
▁کرامات	-4519
▁کوتاھی	-4520
▁گرمیاں	-4521
▁انکھیاں	-4522
▁اٹھائیں	-4523
▁خوبصورت	-4524
▁خودداری	-4525
▁دیواریں	-4526
▁سنبھالے	-4527
▁شناسائی	-4528
▁ناامیدی	-4529
▁ناتوانی	-4530
▁ویرانوں	-4531
▁ٹھوکریں	-4532
▁ڈھونڈیں	-4533
▁کھانیاں	-4534
▁واماندگی	-4535
بن	-4536
تن	-4537
عۂ	-4538
عی	-4539
قب	-4540
لع	-4541
وح	-4542
کز	-4543
أمل	-4544
ادۂ	-4545
برد	-4546
تون	-4547
جھل	-4548
جیے	-4549
دھم	-4550
دید	-4551
دیم	-4552
ذیر	-4553
راج	-4554
راف	-4555
رصر	-4556
ریل	-4557
ستۂ	-4558
صار	-4559
عام	-4560
عون	-4561
فام	-4562
قوت	-4563
لیک	-4564
لیں	-4565
مار	-4566
نعت	-4567
نچل	-4568
نیٔ	-4569
نیے	-4570
ورے	-4571
وھش	-4572
ویش	-4573
چھی	-4574
ڑھی	-4575
گاھ	-4576
گری	-4577
گیر	-4578
یزھ	-4579
ینھ	-4580
▁آت	-4581
▁اں	-4582
▁بم	-4583
▁تخ	-4584
▁رف	-4585
▁زح	-4586
▁زل	-4587
▁زک	-4588
▁عد	-4589
▁عط	-4590
▁غص	-4591
▁غو	-4592
▁قو	-4593
▁مظ	-4594
▁چو	-4595
▁کد	-4596
▁کپ	-4597
جائی	-4598
جروح	-4599
خواھ	-4600
دمند	-4601
زانی	-4602
شتھٔ	-4603
صلوں	-4604
فتگی	-4605
فراز	-4606
لیکن	-4607
منون	-4608
ناعت	-4609
وروں	-4610
کسزم	-4611
کھڑی	-4612
یادی	-4613
▁آئی	-4614
▁اذن	-4615
▁الف	-4616
▁اوس	-4617
▁اٹک	-4618
▁اپر	-4619
▁اھم	-4620
▁ایر	-4621
▁باپ	-4622
▁بدی	-4623
▁بسے	-4624
▁بگو	-4625
▁بھک	-4626
▁بیس	-4627
▁بیل	-4628
▁تال	-4629
▁تخم	-4630
▁ترج	-4631
▁تنک	-4632
▁تھل	-4633
▁تھم	-4634
▁جتا	-4635
▁جمی	-4636
▁جنم	-4637
▁جیا	-4638
▁حبس	-4639
▁حذر	-4640
▁حسد	-4641
▁دبی	-4642
▁دفع	-4643
▁دول	-4644
▁رخت	-4645
▁رکا	-4646
▁زنی	-4647
▁ساں	-4648
▁سرب	-4649
▁سرگ	-4650
▁سوک	-4651
▁شمس	-4652
▁شگو	-4653
▁شیط	-4654
▁صحت	-4655
▁صلا	-4656
▁صلے	-4657
▁طرۂ	-4658
▁عاق	-4659
▁غصے	-4660
▁غیب	-4661
▁فات	-4662
▁فاش	-4663
▁فال	-4664
▁فان	-4665
▁قری	-4666
▁قصے	-4667
▁قول	-4668
▁لقا	-4669
▁لٹک	-4670
▁لڑی	-4671
▁مخم	-4672
▁مدر	-4673
▁مرث	-4674
▁مشغ	-4675
▁ملت	-4676
▁میھ	-4677
▁ناؤ	-4678
▁نشو	-4679
▁نصی	-4680
▁نعش	-4681
▁وسی	-4682
▁وضو	-4683
▁ٹال	-4684
▁پاد	-4685
▁پگھ	-4686
▁پیٹ	-4687
▁چاٹ	-4688
▁چوک	-4689
▁چوں	-4690
▁چپے	-4691
▁ڈھب	-4692
▁کاج	-4693
▁کاو	-4694
▁کبک	-4695
▁کرد	-4696
▁کنی	-4697
▁کچا	-4698
▁گشت	-4699
▁گلد	-4700
▁گنا	-4701
▁گنو	-4702
▁گھی	-4703
▁گیت	-4704
▁ھرا	-4705
الھوس	-4706
بانوں	-4707
▁ابلے	-4708
▁اتری	-4709
▁اخرش	-4710
▁اردو	-4711
▁ازرد	-4712
▁استی	-4713
▁اسرا	-4714
▁اصلی	-4715
▁اصول	-4716
▁الٹا	-4717
▁اھوں	-4718
▁ایذا	-4719
▁بالش	-4720
▁بجاں	-4721
▁بخیھ	-4722
▁بدست	-4723
▁برسر	-4724
▁بسان	-4725
▁بقدر	-4726
▁بقول	-4727
▁بنیں	-4728
▁بگڑے	-4729
▁بھیک	-4730
▁بیتی	-4731
▁بیجا	-4732
▁بینش	-4733
▁تأمل	-4734
▁ترقی	-4735
▁تلخی	-4736
▁تنکا	-4737
▁تواں	-4738
▁توسن	-4739
▁جئیں	-4740
▁جبین	-4741
▁جستھ	-4742
▁جلال	-4743
▁جوئے	-4744
▁جویا	-4745
▁جھمک	-4746
▁جھکی	-4747
▁حدود	-4748
▁حریص	-4749
▁حزیں	-4750
▁حفاظ	-4751
▁خراج	-4752
▁خروش	-4753
▁خفتھ	-4754
▁خوئے	-4755
▁داور	-4756
▁درخت	-4757
▁درست	-4758
▁دستی	-4759
▁دشنھ	-4760
▁دوتا	-4761
▁دوڑے	-4762
▁دھرم	-4763
▁دھوم	-4764
▁دیجے	-4765
▁ذروں	-4766
▁ربطی	-4767
▁رتبھ	-4768
▁رستا	-4769
▁روکش	-4770
▁رکھو	-4771
▁رگوں	-4772
▁رھرو	-4773
▁رھیے	-4774
▁زبوں	-4775
▁زخود	-4776
▁زماں	-4777
▁زمرد	-4778
▁زھرھ	-4779
▁سجدۂ	-4780
▁سرخی	-4781
▁سرکش	-4782
▁سطوت	-4783
▁سنبل	-4784
▁سنیں	-4785
▁سوتا	-4786
▁سوزش	-4787
▁سونپ	-4788
▁سپاس	-4789
▁سپنا	-4790
▁سپند	-4791
▁سپنے	-4792
▁سھتے	-4793
▁سھما	-4794
▁سیرت	-4795
▁شاھی	-4796
▁شعور	-4797
▁صداۓ	-4798
▁صدقے	-4799
▁صرصر	-4800
▁صنعت	-4801
▁طاری	-4802
▁طراز	-4803
▁عروج	-4804
▁عقید	-4805
▁عنبر	-4806
▁عنقا	-4807
▁فراغ	-4808
▁فضاۓ	-4809
▁فضول	-4810
▁فلاں	-4811
▁قبلۂ	-4812
▁لاؤں	-4813
▁لاتی	-4814
▁لالے	-4815
▁لانے	-4816
▁لبھا	-4817
▁لطیف	-4818
▁لغزش	-4819
▁لوٹا	-4820
▁لوٹے	-4821
▁لوھو	-4822
▁لڑکی	-4823
▁لکھی	-4824
▁لگنے	-4825
▁لھرا	-4826
▁مجاز	-4827
▁مجرم	-4828
▁مدفن	-4829
▁مدھم	-4830
▁مرکز	-4831
▁مریم	-4832
▁مشرق	-4833
▁مطلع	-4834
▁معاذ	-4835
▁ملاؤ	-4836
▁ممات	-4837
▁منشا	-4838
▁منصب	-4839
▁منعم	-4840
▁مومن	-4841
▁مٹتا	-4842
▁مژدھ	-4843
▁مکمل	-4844
▁مھری	-4845
▁میسر	-4846
▁ناحق	-4847
▁نازش	-4848
▁نامے	-4849
▁نبرد	-4850
▁نشیب	-4851
▁نظری	-4852
▁نعمت	-4853
▁نورد	-4854
▁نگھٔ	-4855
▁نھال	-4856
▁نیام	-4857
▁وحدت	-4858
▁وفور	-4859
▁ٹپکا	-4860
▁ٹپکے	-4861
▁ٹھان	-4862
▁پانا	-4863
▁پانو	-4864
▁پانے	-4865
▁پختھ	-4866
▁پذیر	-4867
▁پرزے	-4868
▁پھون	-4869
▁پھٹی	-4870
▁پیلے	-4871
▁پیما	-4872
▁چتون	-4873
▁چلمن	-4874
▁چنچل	-4875
▁چپکے	-4876
▁چھان	-4877
▁چھرۂ	-4878
▁چھپے	-4879
▁ڈالو	-4880
▁کاسۂ	-4881
▁کاھے	-4882
▁کدوں	-4883
▁کریم	-4884
▁کشاد	-4885
▁کشور	-4886
▁کشوں	-4887
▁کھوے	-4888
▁کھڑی	-4889
▁گوار	-4890
▁گوشھ	-4891
▁گوشے	-4892
▁گھرا	-4893
▁گھنے	-4894
▁ھمسا	-4895
▁ھیرے	-4896
▁یاری	-4897
▁ابلوں	-4898
▁اترتی	-4899
▁اجالے	-4900
▁اخلاص	-4901
▁ارشاد	-4902
▁اصرار	-4903
▁افریں	-4904
▁افسون	-4905
▁الجھن	-4906
▁الماس	-4907
▁امانت	-4908
▁انعام	-4909
▁اوارۂ	-4910
▁اوجھل	-4911
▁اولیں	-4912
▁اونچا	-4913
▁اچھال	-4914
▁اچھوں	-4915
▁اڑائی	-4916
▁اکرام	-4917
▁اگاھی	-4918
▁بتایا	-4919
▁بجھتی	-4920
▁بجھنے	-4921
▁بدلتا	-4922
▁بدلتی	-4923
▁بردار	-4924
▁برھمی	-4925
▁بسانا	-4926
▁بنائی	-4927
▁بنیاد	-4928
▁بڑھتا	-4929
▁بکھری	-4930
▁بھائی	-4931
▁بھلتا	-4932
▁بھیگی	-4933
▁بیباک	-4934
▁بینوں	-4935
▁بیٹھی	-4936
▁تازگی	-4937
▁تجربے	-4938
▁تشویش	-4939
▁تعلیم	-4940
▁تماشھ	-4941
▁تمکین	-4942
▁تڑپتا	-4943
▁جاویں	-4944
▁جاگتے	-4945
▁جاگنے	-4946
▁جبریل	-4947
▁جلانے	-4948
▁جمھور	-4949
▁جنازے	-4950
▁جگائے	-4951
▁جگمگا	-4952
▁جھلمل	-4953
▁جھوٹی	-4954
▁جھوٹے	-4955
▁حجابی	-4956
▁حوریں	-4957
▁خانھٔ	-4958
▁خدائے	-4959
▁خرابے	-4960
▁خزانے	-4961
▁خندھٔ	-4962
▁داغوں	-4963
▁درازی	-4964
▁درماں	-4965
▁دشنام	-4966
▁دعاؤں	-4967
▁دوانے	-4968
▁دوسری	-4969
▁دوسرے	-4970
▁دھارا	-4971
▁دھقاں	-4972
▁رلانا	-4973
▁رلایا	-4974
▁رومیؔ	-4975
▁رویاں	-4976
▁زدگاں	-4977
▁زنبور	-4978
▁زندان	-4979
▁زنھار	-4980
▁ساقیٔ	-4981
▁سانحھ	-4982
▁سانچے	-4983
▁ستائے	-4984
▁ستاتی	-4985
▁سختیٔ	-4986
▁سرائے	-4987
▁سلسلے	-4988
▁سلگتے	-4989
▁سلیقے	-4990
▁سناتے	-4991
▁سناٹے	-4992
▁سوچتی	-4993
▁سوچتے	-4994
▁سویرے	-4995
▁سیدھا	-4996
▁سیراب	-4997
▁سینوں	-4998
▁شاخیں	-4999
▁شاھیں	-5000
▁شرطیں	-5001
▁شکاری	-5002
▁شگفتن	-5003
▁شگفتھ	-5004
▁صداؤں	-5005
▁صدیاں	-5006
▁طفلاں	-5007
▁عدالت	-5008
▁عصیاں	-5009
▁عیاری	-5010
▁غلامی	-5011
▁فسانۂ	-5012
▁قاروں	-5013
▁قبروں	-5014
▁قناعت	-5015
▁قھقھھ	-5016
▁لکھیں	-5017
▁لگائی	-5018
▁لگاتے	-5019
▁لگاوٹ	-5020
▁مانیں	-5021
▁مجروح	-5022
▁محراب	-5023
▁مداوا	-5024
▁مدتیں	-5025
▁مرجھا	-5026
▁مردمک	-5027
▁مشکیں	-5028
▁مضمون	-5029
▁معرکھ	-5030
▁معیار	-5031
▁مقدور	-5032
▁ممنون	-5033
▁موجزن	-5034
▁مٹایا	-5035
▁ناروا	-5036
▁نازاں	-5037
▁نازکی	-5038
▁نالاں	-5039
▁نالوں	-5040
▁نامرا	-5041
▁نخچیر	-5042
▁نظارۂ	-5043
▁نقصان	-5044
▁نقصاں	-5045
▁نمائش	-5046
▁نمازی	-5047
▁نمناک	-5048
▁نکلتا	-5049
▁نکلنا	-5050
▁نکوھش	-5051
▁نگراں	-5052
▁نیشتر	-5053
▁ولیکن	-5054
▁ٹپکتا	-5055
▁ٹھنڈی	-5056
▁پجاری	-5057
▁پرداز	-5058
▁پرندھ	-5059
▁پرکار	-5060
▁پچھلی	-5061
▁پڑھتے	-5062
▁پھرنے	-5063
▁پھنسا	-5064
▁پھیلی	-5065
▁پیارا	-5066
▁پیالے	-5067
▁پیچاں	-5068
▁پیکاں	-5069
▁چاروں	-5070
▁چالاک	-5071
▁چڑیوں	-5072
▁چھونے	-5073
▁چھوٹی	-5074
▁چھپتی	-5075
▁ڈوبتا	-5076
▁کانٹے	-5077
▁کدورت	-5078
▁کلامی	-5079
▁گدائی	-5080
▁گرانی	-5081
▁گرداب	-5082
▁گزارا	-5083
▁گزرتی	-5084
▁گلفام	-5085
▁گواھی	-5086
▁ھارنے	-5087
▁یادیں	-5088
▁یاقوت	-5089
▁یگانھ	-5090
▁ابروئے	-5091
▁ابھرتا	-5092
▁ابھریں	-5093
▁اترائے	-5094
▁اختلاط	-5095
▁اختلاف	-5096
▁ادائیں	-5097
▁ارزانی	-5098
▁استغنا	-5099
▁اسیران	-5100
▁اشارات	-5101
▁اشنائے	-5102
▁افشائے	-5103
▁التماس	-5104
▁اندازۂ	-5105
▁انسانی	-5106
▁اٹھاتا	-5107
▁بجلیاں	-5108
▁بجھائے	-5109
▁بجھانے	-5110
▁بچھڑنے	-5111
▁بھروسھ	-5112
▁بھلایا	-5113
▁تھرتھر	-5114
▁جانانھ	-5115
▁جھنکار	-5116
▁حسرتوں	-5117
▁حسرتیں	-5118
▁حیرانی	-5119
▁خبردار	-5120
▁خواروں	-5121
▁خیالات	-5122
▁دانستھ	-5123
▁دردمند	-5124
▁درمیان	-5125
▁دشواری	-5126
▁دوستاں	-5127
▁دھندلا	-5128
▁رسوائے	-5129
▁رندانھ	-5130
▁رھروان	-5131
▁زانوئے	-5132
▁زیبائی	-5133
▁زینھار	-5134
▁سرفراز	-5135
▁سلیماں	-5136
▁شرمائے	-5137
▁شکستوں	-5138
▁شھیداں	-5139
▁شیرازھ	-5140
▁صورتیں	-5141
▁عاشقوں	-5142
▁عریانی	-5143
▁عزیزاں	-5144
▁غریبوں	-5145
▁فریادی	-5146
▁قاتلوں	-5147
▁مانگیں	-5148
▁مایوسی	-5149
▁مردانھ	-5150
▁معمورۂ	-5151
▁ناامید	-5152
▁ناگوار	-5153
▁نمکداں	-5154
▁نیندوں	-5155
▁وحشتیں	-5156
▁ٹکرائے	-5157
▁پاسباں	-5158
▁پروانے	-5159
▁پنکھڑی	-5160
▁پھاڑوں	-5161
▁پھینکا	-5162
▁پیمانۂ	-5163
▁چھالوں	-5164
▁چھلکتے	-5165
▁چھپایا	-5166
▁کھلونا	-5167
▁کھولیں	-5168
▁کیونکے	-5169
▁گستاخی	-5170
▁گلابوں	-5171
▁گھرائی	-5172
▁گھٹاؤں	-5173
▁گیسوؤں	-5174
▁ھرجائی	-5175
▁استعارھ	-5176
▁امیدوار	-5177
▁اندھیری	-5178
▁بوالھوس	-5179
▁بھلائیں	-5180
▁خواھشیں	-5181
▁رھنماؤں	-5182
▁زنجیریں	-5183
▁سرگرانی	-5184
▁سمجھانے	-5185
▁شرمندگی	-5186
▁طبیعتوں	-5187
▁قیامتیں	-5188
▁مارکسزم	-5189
▁مسکرانے	-5190
▁وارستگی	-5191
▁وفاداری	-5192
▁پاسبانی	-5193
▁پرافشاں	-5194
▁ڈھونڈتا	-5195
▁دکھلائیں	-5196
▁سنبھالتا	-5197
اخ	-5198
حی	-5199
اۂ	-5200
حے	-5201
خن	-5202
رر	-5203
رض	-5204
رۂ	-5205
زۂ	-5206
طف	-5207
طۂ	-5208
ظھ	-5209
قد	-5210
قر	-5211
مٹ	-5212
چم	-5213
ڑو	-5214
گس	-5215
ئیل	-5216
ائق	-5217
اتم	-5218
ادے	-5219
افت	-5220
الھ	-5221
امد	-5222
امن	-5223
اھل	-5224
باز	-5225
بوس	-5226
بھم	-5227
بیب	-5228
بیت	-5229
جاج	-5230
جرت	-5231
جور	-5232
جیو	-5233
دال	-5234
زلت	-5235
ساب	-5236
سبز	-5237
ستر	-5238
سوا	-5239
سین	-5240
شتی	-5241
ضوع	-5242
عاد	-5243
غات	-5244
فلی	-5245
فیل	-5246
قام	-5247
قیر	-5248
لاد	-5249
لام	-5250
لوع	-5251
لید	-5252
ماش	-5253
ماع	-5254
متر	-5255
ملا	-5256
نما	-5257
نود	-5258
نین	-5259
وام	-5260
وتر	-5261
وزی	-5262
ولت	-5263
ولی	-5264
ونت	-5265
ونی	-5266
پنے	-5267
کام	-5268
کتی	-5269
کیم	-5270
گرد	-5271
گزر	-5272
ھام	-5273
ھمی	-5274
ھود	-5275
ھوم	-5276
یاق	-5277
یلی	-5278
ینۂ	-5279
▁بط	-5280
▁حم	-5281
▁خص	-5282
▁دس	-5283
▁رد	-5284
▁زا	-5285
▁صل	-5286
▁صی	-5287
▁ظن	-5288
▁عھ	-5289
▁فص	-5290
▁مز	-5291
▁نث	-5292
▁کڑ	-5293
▁ھز	-5294
ابلھ	-5295
اراض	-5296
اماں	-5297
انکھ	-5298
بادا	-5299
بروں	-5300
تمام	-5301
جواں	-5302
دیعت	-5303
راحی	-5304
راوت	-5305
شگاف	-5306
فائے	-5307
فرقھ	-5308
فعال	-5309
قبال	-5310
ندری	-5311
ندھی	-5312
ولھے	-5313
چھیے	-5314
ڑیاں	-5315
کنار	-5316
ھائی	-5317
ھانت	-5318
ھلھا	-5319
یادت	-5320
یازۂ	-5321
یتیں	-5322
یدھر	-5323
یکھا	-5324
▁آتش	-5325
▁اسا	-5326
▁الا	-5327
▁الح	-5328
▁امڈ	-5329
▁انک	-5330
▁اکھ	-5331
▁این	-5332
▁باج	-5333
▁باس	-5334
▁برد	-5335
▁بصد	-5336
▁بصر	-5337
▁بنج	-5338
▁بچن	-5339
▁بچی	-5340
▁بگا	-5341
▁بیر	-5342
▁تتل	-5343
▁ترس	-5344
▁ثنا	-5345
▁جاۓ	-5346
▁جما	-5347
▁جوت	-5348
▁جھم	-5349
▁جھٹ	-5350
▁حاس	-5351
▁حلا	-5352
▁حما	-5353
▁ختن	-5354
▁خفت	-5355
▁دئے	-5356
▁داب	-5357
▁دال	-5358
▁دوڑ	-5359
▁دیس	-5360
▁ذری	-5361
▁ران	-5362
▁ردی	-5363
▁روب	-5364
▁زائ	-5365
▁زال	-5366
▁سخی	-5367
▁سرم	-5368
▁سرے	-5369
▁سطح	-5370
▁سعئ	-5371
▁سچا	-5372
▁سچی	-5373
▁شبھ	-5374
▁شرع	-5375
▁شکم	-5376
▁شھد	-5377
▁شھز	-5378
▁شھن	-5379
▁صلھ	-5380
▁صوت	-5381
▁صور	-5382
▁ضرب	-5383
▁طشت	-5384
▁عدل	-5385
▁عصا	-5386
▁عصر	-5387
▁عضو	-5388
▁عفو	-5389
▁غسل	-5390
▁غصھ	-5391
▁فرط	-5392
▁فگن	-5393
▁قفل	-5394
▁قلق	-5395
▁قند	-5396
▁قوم	-5397
▁لاؤ	-5398
▁لاف	-5399
▁لقب	-5400
▁للھ	-5401
▁لمس	-5402
▁مغب	-5403
▁مفر	-5404
▁منع	-5405
▁منگ	-5406
▁موم	-5407
▁مچا	-5408
▁میٹ	-5409
▁ناق	-5410
▁نتی	-5411
▁نسل	-5412
▁نطق	-5413
▁نفع	-5414
▁نمط	-5415
▁نمو	-5416
▁نوش	-5417
▁نوچ	-5418
▁نکو	-5419
▁نگل	-5420
▁نیز	-5421
▁نیں	-5422
▁واے	-5423
▁ٹھل	-5424
▁پاں	-5425
▁پرخ	-5426
▁پرے	-5427
▁پست	-5428
▁پٹک	-5429
▁چبھ	-5430
▁چکر	-5431
▁چیر	-5432
▁ڈرے	-5433
▁ڈول	-5434
▁کبر	-5435
▁کشف	-5436
▁کما	-5437
▁کنا	-5438
▁کند	-5439
▁کٹی	-5440
▁کڑا	-5441
▁کھک	-5442
▁کیش	-5443
▁گاۂ	-5444
▁گود	-5445
▁ھات	-5446
▁ھری	-5447
▁ھفت	-5448
▁ھول	-5449
▁ھوے	-5450
▁ھٹا	-5451
ائیاں	-5452
ساروں	-5453
نچکاں	-5454
وستاں	-5455
ڑکیاں	-5456
ڑھیاں	-5457
▁ابجد	-5458
▁اذاں	-5459
▁ارنی	-5460
▁اسیب	-5461
▁اعدا	-5462
▁افعی	-5463
▁افگن	-5464
▁الود	-5465
▁الٰھ	-5466
▁امیز	-5467
▁اندھ	-5468
▁اگلی	-5469
▁ایاغ	-5470
▁بانس	-5471
▁بجتے	-5472
▁بختی	-5473
▁بخیل	-5474
▁برگد	-5475
▁بریں	-5476
▁بستے	-5477
▁بصیر	-5478
▁بنام	-5479
▁بننے	-5480
▁بنوں	-5481
▁بچنا	-5482
▁بچنے	-5483
▁بڑوں	-5484
▁بڑھی	-5485
▁بھال	-5486
▁بھتی	-5487
▁بھوک	-5488
▁بھیج	-5489
▁بیضۂ	-5490
▁تتار	-5491
▁تحمل	-5492
▁تحیر	-5493
▁تقاض	-5494
▁تقوی	-5495
▁تنکے	-5496
▁تنگی	-5497
▁توام	-5498
▁توڑے	-5499
▁توھم	-5500
▁تکتے	-5501
▁تکیھ	-5502
▁تیزی	-5503
▁جاگی	-5504
▁جذبے	-5505
▁جلوت	-5506
▁جوبن	-5507
▁جوشش	-5508
▁جھلس	-5509
▁جھمی	-5510
▁جھیل	-5511
▁حبیب	-5512
▁حجاز	-5513
▁حرار	-5514
▁حصار	-5515
▁حکیم	-5516
▁حیلھ	-5517
▁خاتم	-5518
▁خانق	-5519
▁خجلت	-5520
▁خرقھ	-5521
▁خیمۂ	-5522
▁دئیے	-5523
▁دانی	-5524
▁درھم	-5525
▁دلاس	-5526
▁دلھن	-5527
▁دوئی	-5528
▁دکھی	-5529
▁دھشت	-5530
▁دھمک	-5531
▁دینی	-5532
▁راجا	-5533
▁رباب	-5534
▁رتوں	-5535
▁رخاں	-5536
▁رسوم	-5537
▁رموز	-5538
▁رنگا	-5539
▁رنگت	-5540
▁روؤں	-5541
▁روئی	-5542
▁روٹی	-5543
▁رکاب	-5544
▁رکتا	-5545
▁رکتے	-5546
▁رگیں	-5547
▁رھنم	-5548
▁ریزش	-5549
▁زادے	-5550
▁زحمت	-5551
▁زدوں	-5552
▁زمان	-5553
▁زیبا	-5554
▁سائی	-5555
▁ساحر	-5556
▁سازش	-5557
▁سایے	-5558
▁سبحۂ	-5559
▁ستوں	-5560
▁سجود	-5561
▁سدھا	-5562
▁سدھر	-5563
▁سرمۂ	-5564
▁سرمے	-5565
▁سرھا	-5566
▁سماع	-5567
▁سواے	-5568
▁سوتی	-5569
▁سولی	-5570
▁سونے	-5571
▁سیلی	-5572
▁سیما	-5573
▁سینچ	-5574
▁شربت	-5575
▁شریف	-5576
▁شنود	-5577
▁شکنی	-5578
▁شگوف	-5579
▁شیون	-5580
▁صافی	-5581
▁صانع	-5582
▁صرفھ	-5583
▁صریر	-5584
▁صفحھ	-5585
▁صفیر	-5586
▁ضامن	-5587
▁طبیب	-5588
▁طعنھ	-5589
▁طفلی	-5590
▁طلوع	-5591
▁عذار	-5592
▁عرصھ	-5593
▁عزلت	-5594
▁علما	-5595
▁غلطی	-5596
▁غمزۂ	-5597
▁فاتح	-5598
▁فرسا	-5599
▁فصیل	-5600
▁قران	-5601
▁قراں	-5602
▁قطار	-5603
▁قماش	-5604
▁قومی	-5605
▁قیاس	-5606
▁قیام	-5607
▁لانا	-5608
▁لحظھ	-5609
▁لوگو	-5610
▁لٹتا	-5611
▁لکھو	-5612
▁لگاؤ	-5613
▁لیجے	-5614
▁لیوے	-5615
▁مالک	-5616
▁مبھم	-5617
▁متصل	-5618
▁محمد	-5619
▁محکم	-5620
▁مدار	-5621
▁مرشد	-5622
▁مشاط	-5623
▁مشعل	-5624
▁معاش	-5625
▁معین	-5626
▁مفلس	-5627
▁مقرر	-5628
▁ملول	-5629
▁منبر	-5630
▁منصف	-5631
▁موقع	-5632
▁مولو	-5633
▁موند	-5634
▁مونس	-5635
▁موھن	-5636
▁مھنگ	-5637
▁میلھ	-5638
▁میلے	-5639
▁مینھ	-5640
▁نابھ	-5641
▁نازل	-5642
▁نامح	-5643
▁نجوم	-5644
▁نسخۂ	-5645
▁نشھٔ	-5646
▁نوشی	-5647
▁نکلو	-5648
▁نگاۂ	-5649
▁نگیں	-5650
▁نیچی	-5651
▁نیچے	-5652
▁واحد	-5653
▁وادئ	-5654
▁واری	-5655
▁واشد	-5656
▁ٹکڑا	-5657
▁پتلا	-5658
▁پتلے	-5659
▁پتنگ	-5660
▁پربت	-5661
▁پروں	-5662
▁پرچم	-5663
▁پورا	-5664
▁پورے	-5665
▁پڑوں	-5666
▁پڑیے	-5667
▁پھسل	-5668
▁پھڑک	-5669
▁پیرا	-5670
▁چارۂ	-5671
▁چندے	-5672
▁چھاپ	-5673
▁چھرا	-5674
▁چھوا	-5675
▁چھڑا	-5676
▁ڈھان	-5677
▁کاجل	-5678
▁کارن	-5679
▁کالج	-5680
▁کالی	-5681
▁کامی	-5682
▁کریے	-5683
▁کمتر	-5684
▁کمند	-5685
▁کپڑے	-5686
▁کڑھا	-5687
▁کھنڈ	-5688
▁کھوج	-5689
▁گائے	-5690
▁گاھی	-5691
▁گرتی	-5692
▁گلخن	-5693
▁گنگا	-5694
▁گونھ	-5695
▁گھات	-5696
▁گھاس	-5697
▁گیتی	-5698
▁ھاری	-5699
▁ھجرت	-5700
▁ھرزھ	-5701
▁ھلکا	-5702
▁ھنسے	-5703
▁ھونی	-5704
▁یکسو	-5705
▁آئینھ	-5706
▁اتاری	-5707
▁اترتے	-5708
▁اتنوں	-5709
▁اجارھ	-5710
▁احکام	-5711
▁ازاری	-5712
▁اسائش	-5713
▁اسلام	-5714
▁افرنگ	-5715
▁الجھی	-5716
▁الجھے	-5717
▁الوطن	-5718
▁امادۂ	-5719
▁انبار	-5720
▁انگور	-5721
▁انھوں	-5722
▁اٹھنے	-5723
▁اڑائے	-5724
▁اڑاتا	-5725
▁اڑانے	-5726
▁اھوئے	-5727
▁ایدھر	-5728
▁ایراں	-5729
▁ایسوں	-5730
▁بازاں	-5731
▁بازوں	-5732
▁بالوں	-5733
▁بانکی	-5734
▁باھمی	-5735
▁بتاتا	-5736
▁بتیاں	-5737
▁بجھتا	-5738
▁بجھتے	-5739
▁بختوں	-5740
▁بدلنا	-5741
▁بدمست	-5742
▁بدولت	-5743
▁برائے	-5744
▁برستے	-5745
▁برملا	-5746
▁بروئے	-5747
▁بسائے	-5748
▁بناتے	-5749
▁بوجھل	-5750
▁بوڑھی	-5751
▁بوڑھے	-5752
▁بچائے	-5753
▁بچانے	-5754
▁بچھڑا	-5755
▁بڑھتی	-5756
▁بگولے	-5757
▁بھانا	-5758
▁بھاگا	-5759
▁بھرتے	-5760
▁بھرنے	-5761
▁بھڑکا	-5762
▁بھیجے	-5763
▁بھیگے	-5764
▁بیانی	-5765
▁تاراج	-5766
▁تباھی	-5767
▁تجاھل	-5768
▁تجدید	-5769
▁تحسین	-5770
▁تذکرھ	-5771
▁تذکرۂ	-5772
▁ترازو	-5773
▁تراشا	-5774
▁تربیت	-5775
▁ترستا	-5776
▁تعزیر	-5777
▁تفرقھ	-5778
▁تفصیل	-5779
▁تقلید	-5780
▁تلافی	-5781
▁تلووں	-5782
▁تماشے	-5783
▁تمھید	-5784
▁تولیں	-5785
▁تپیدن	-5786
▁تڑپنا	-5787
▁تیاری	-5788
▁جتانے	-5789
▁جلووں	-5790
▁جنازھ	-5791
▁جھرمٹ	-5792
▁جھکتی	-5793
▁جھیلے	-5794
▁جیتنے	-5795
▁حاجات	-5796
▁حضوری	-5797
▁حنائی	-5798
▁حیائی	-5799
▁خبروں	-5800
▁خرامی	-5801
▁خستگی	-5802
▁خنداں	-5803
▁خوابی	-5804
▁خوبان	-5805
▁خوبیٔ	-5806
▁خوردھ	-5807
▁خیالی	-5808
▁خیرات	-5809
▁دانوں	-5810
▁درمان	-5811
▁درپئے	-5812
▁دریچھ	-5813
▁دلائی	-5814
▁دلگیر	-5815
▁دماغی	-5816
▁دنبال	-5817
▁دکھتا	-5818
▁دھوتا	-5819
▁دھوکھ	-5820
▁دھیمے	-5821
▁دیجیے	-5822
▁دیوتا	-5823
▁ذھانت	-5824
▁رازیؔ	-5825
▁راھرو	-5826
▁راھزن	-5827
▁ردائے	-5828
▁رشتھٔ	-5829
▁رضائے	-5830
▁رقابت	-5831
▁رندوں	-5832
▁رنگوں	-5833
▁رنگین	-5834
▁روانھ	-5835
▁روٹھا	-5836
▁روٹھی	-5837
▁رویوں	-5838
▁رکھئے	-5839
▁رھگزر	-5840
▁ریحاں	-5841
▁ریزھٔ	-5842
▁ریکھا	-5843
▁زنگار	-5844
▁زھراب	-5845
▁ساختھ	-5846
▁سبھوں	-5847
▁ستاتا	-5848
▁ستایا	-5849
▁سجایا	-5850
▁سرسبز	-5851
▁سفینے	-5852
▁سلاسل	-5853
▁سمائی	-5854
▁سمائے	-5855
▁سمجھی	-5856
▁سمیٹے	-5857
▁سناؤں	-5858
▁سناتی	-5859
▁سنایا	-5860
▁سنسار	-5861
▁سوختن	-5862
▁سوغات	-5863
▁سونپا	-5864
▁سوچنا	-5865
▁سڑکوں	-5866
▁سھانا	-5867
▁شاھوں	-5868
▁شبانھ	-5869
▁شتابی	-5870
▁شرارھ	-5871
▁شعبدھ	-5872
▁شعروں	-5873
▁شعلھٔ	-5874
▁شمائل	-5875
▁شماری	-5876
▁شمعوں	-5877
▁شناسی	-5878
▁شکستن	-5879
▁شکلیں	-5880
▁شیراز	-5881
▁شیطان	-5882
▁صحراۓ	-5883
▁صراحی	-5884
▁طاقتی	-5885
▁طراوت	-5886
▁طریقت	-5887
▁طریقے	-5888
▁عاقبت	-5889
▁عرفان	-5890
▁عزیزو	-5891
▁عمارت	-5892
▁عیادت	-5893
▁غالبا	-5894
▁غزلیں	-5895
▁فانوس	-5896
▁فرشتھ	-5897
▁فرشتے	-5898
▁فرعون	-5899
▁فرنگی	-5900
▁فسردھ	-5901
▁فصلیں	-5902
▁فقیری	-5903
▁فلسفھ	-5904
▁فولاد	-5905
▁فیصلے	-5906
▁قبائے	-5907
▁لبادھ	-5908
▁لمحھٔ	-5909
▁لچکتی	-5910
▁لڑکوں	-5911
▁لکھنے	-5912
▁لھروں	-5913
▁لھلھا	-5914
▁ماتھا	-5915
▁مارتے	-5916
▁مارنے	-5917
▁ماسوا	-5918
▁مانئے	-5919
▁ماندھ	-5920
▁مبادا	-5921
▁مجازی	-5922
▁محتاج	-5923
▁مخمور	-5924
▁مدرسے	-5925
▁مرثیھ	-5926
▁مرحوم	-5927
▁مردان	-5928
▁مزاجی	-5929
▁مسکیں	-5930
▁معاصی	-5931
▁معتبر	-5932
▁معترض	-5933
▁معجزے	-5934
▁معراج	-5935
▁معرکے	-5936
▁مقدمھ	-5937
▁ملایا	-5938
▁ملبوس	-5939
▁مناسب	-5940
▁منتشر	-5941
▁منداں	-5942
▁منصور	-5943
▁موجوں	-5944
▁موجیں	-5945
▁موزوں	-5946
▁موضوع	-5947
▁مکتوب	-5948
▁مھجور	-5949
▁مھکتا	-5950
▁مھکتی	-5951
▁میعاد	-5952
▁میکدھ	-5953
▁ناراض	-5954
▁ناسور	-5955
▁ناصحا	-5956
▁ناصحو	-5957
▁نامھر	-5958
▁ناچتے	-5959
▁نرالے	-5960
▁نغموں	-5961
▁نمائی	-5962
▁نوازش	-5963
▁نوخیز	-5964
▁نومید	-5965
▁نکالا	-5966
▁نکھار	-5967
▁وادیٔ	-5968
▁واسطھ	-5969
▁واللھ	-5970
▁ودیعت	-5971
▁وعدوں	-5972
▁ٹانکے	-5973
▁ٹوٹنے	-5974
▁ٹوٹیں	-5975
▁ٹھنڈا	-5976
▁پائیے	-5977
▁پتھرا	-5978
▁پرائے	-5979
▁پردھٔ	-5980
▁پرورش	-5981
▁پریاں	-5982
▁پلایا	-5983
▁پوشاک	-5984
▁پونچھ	-5985
▁پھیلے	-5986
▁چمکتے	-5987
▁چولھے	-5988
▁چونکا	-5989
▁چھالے	-5990
▁چھلکا	-5991
▁چھنتی	-5992
▁چھیڑا	-5993
▁چھیڑے	-5994
▁ڈھلتے	-5995
▁کارگر	-5996
▁کافری	-5997
▁کانٹا	-5998
▁کبوتر	-5999
▁کرامت	-6000
▁کردنی	-6001
▁کلیجا	-6002
▁کلیجھ	-6003
▁کوتاھ	-6004
▁کونین	-6005
▁کھاتا	-6006
▁کھلیں	-6007
▁کھنچے	-6008
▁کھوئی	-6009
▁کھوتا	-6010
▁کھولا	-6011
▁کھولی	-6012
▁گدائے	-6013
▁گرداں	-6014
▁گرفتھ	-6015
▁گریاں	-6016
▁گزراں	-6017
▁گلیاں	-6018
▁گونجی	-6019
▁گیتوں	-6020
▁گیھوں	-6021
▁ھنستا	-6022
▁ھنستی	-6023
▁ھنسنا	-6024
▁ابگینھ	-6025
▁ابھرتی	-6026
▁ابھرنے	-6027
▁اجالوں	-6028
▁احتراز	-6029
▁اشاروں	-6030
▁اشتیاق	-6031
▁اصولوں	-6032
▁اعتراف	-6033
▁افتادھ	-6034
▁الاماں	-6035
▁الجھنے	-6036
▁امیروں	-6037
▁انتظام	-6038
▁انتقام	-6039
▁اندازھ	-6040
▁انفعال	-6041
▁اھتمام	-6042
▁بادبان	-6043
▁بادباں	-6044
▁بارشیں	-6045
▁بازوؤں	-6046
▁بازوئے	-6047
▁باندھے	-6048
▁بدخشاں	-6049
▁بزرگوں	-6050
▁بچھڑتے	-6051
▁بچھڑنا	-6052
▁بکھرتا	-6053
▁بھاگتے	-6054
▁بھاگیں	-6055
▁بھلانا	-6056
▁بھولنا	-6057
▁بیباکی	-6058
▁بیٹھنے	-6059
▁بیڑیاں	-6060
▁بیکراں	-6061
▁تتلیاں	-6062
▁تعلقات	-6063
▁جاوداں	-6064
▁جلائیں	-6065
▁جنگلوں	-6066
▁جھلملا	-6067
▁جھومتی	-6068
▁جھونکے	-6069
▁جھکانا	-6070
▁حادثات	-6071
▁حادثوں	-6072
▁خاکستر	-6073
▁خمیازۂ	-6074
▁خوشامد	-6075
▁دامنوں	-6076
▁دانتوں	-6077
▁دبستاں	-6078
▁دریچوں	-6079
▁دعوائے	-6080
▁دلائیں	-6081
▁دلبروں	-6082
▁دلیلیں	-6083
▁دکانوں	-6084
▁دھندلے	-6085
▁دھوئیں	-6086
▁دھڑکنے	-6087
▁دیرینھ	-6088
▁دیوانا	-6089
▁دیکھتی	-6090
▁راھنما	-6091
▁رستخیز	-6092
▁رلائیں	-6093
▁رنجشیں	-6094
▁رھزنوں	-6095
▁زندانی	-6096
▁سرابوں	-6097
▁سرمایھ	-6098
▁سرمایۂ	-6099
▁سرنگوں	-6100
▁سلیمان	-6101
▁سمجھتی	-6102
▁سمجھوں	-6103
▁سوندھی	-6104
▁سویداۓ	-6105
▁سکھاتا	-6106
▁شرماتا	-6107
▁شعاعیں	-6108
▁شکرانھ	-6109
▁صحبتیں	-6110
▁طوفانی	-6111
▁طولانی	-6112
▁غریباں	-6113
▁غلاموں	-6114
▁فاصلوں	-6115
▁فرماتے	-6116
▁قبائیں	-6117
▁قراروں	-6118
▁قربانی	-6119
▁لکیریں	-6120
▁محبتیں	-6121
▁مشکلیں	-6122
▁مضامین	-6123
▁مضامیں	-6124
▁مقابلھ	-6125
▁منائیں	-6126
▁مندروں	-6127
▁مکانوں	-6128
▁ناخوشی	-6129
▁ناکردھ	-6130
▁نبھانے	-6131
▁نصیبوں	-6132
▁نفرتوں	-6133
▁نوجواں	-6134
▁نگھباں	-6135
▁نیلگوں	-6136
▁واپسیں	-6137
▁ٹھھرتی	-6138
▁ٹھھریں	-6139
▁پابندی	-6140
▁پاسبان	-6141
▁پانیوں	-6142
▁پرستاں	-6143
▁پروائی	-6144
▁پوشیدھ	-6145
▁پوچھنا	-6146
▁پوچھیے	-6147
▁پچھتاؤ	-6148
▁پھنائی	-6149
▁پھچانی	-6150
▁پھیلتے	-6151
▁پیمائی	-6152
▁چراغان	-6153
▁چھیڑیں	-6154
▁کاروان	-6155
▁کروٹیں	-6156
▁کھائیں	-6157
▁کھائیے	-6158
▁کھنچتا	-6159
▁کھنچتی	-6160
▁کھولیے	-6161
▁گالیاں	-6162
▁گردشیں	-6163
▁گویائی	-6164
▁ھمسایھ	-6165
▁ھمکنار	-6166
▁یکتائی	-6167
▁ابگینوں	-6168
▁اداسیوں	-6169
▁اداکاری	-6170
▁ارزوئیں	-6171
▁استقبال	-6172
▁استینوں	-6173
▁اسمانوں	-6174
▁اندیشھٔ	-6175
▁انسانوں	-6176
▁انسانیت	-6177
▁اوارگان	-6178
▁حالانکھ	-6179
▁حقیقتیں	-6180
▁خونچکاں	-6181
▁رفاقتوں	-6182
▁سماعتوں	-6183
▁سمجھائے	-6184
▁سمجھاتا	-6185
▁سمجھاتے	-6186
▁سیڑھیاں	-6187
▁شکایتیں	-6188
▁شکیبائی	-6189
▁عاشقانھ	-6190
▁لکھوائے	-6191
▁مسکرائے	-6192
▁میدانوں	-6193
▁ناتمامی	-6194
▁نارسائی	-6195
▁ناگھانی	-6196
▁پشیمانی	-6197
▁پھچانتا	-6198
▁پھچانتے	-6199
▁کھڑکیاں	-6200
▁کھینچوں	-6201
▁گھبرائے	-6202
▁گھبرایا	-6203
▁بیتابیاں	-6204
▁سنبھالوں	-6205
▁پرچھائیں	-6206
▁پریشانیٔ	-6207
▁پچھتائیے	-6208
▁ڈھونڈھتے	-6209
▁ھندوستاں	-6210
▁مھربانیاں	-6211
بح	-6212
ثب	-6213
ثت	-6214
حط	-6215
حم	-6216
دد	-6217
دف	-6218
ذف	-6219
رق	-6220
سھ	-6221
شگ	-6222
ضد	-6223
طع	-6224
طم	-6225
طے	-6226
غب	-6227
غم	-6228
غے	-6229
فئ	-6230
مگ	-6231
نئ	-6232
نر	-6233
نٹ	-6234
نک	-6235
ٹر	-6236
چر	-6237
چو	-6238
ڈی	-6239
گئ	-6240
▁ٔ	-6241
ابق	-6242
ادی	-6243
ارش	-6244
ارف	-6245
افظ	-6246
اقب	-6247
الف	-6248
انک	-6249
اھو	-6250
باش	-6251
بتھ	-6252
بول	-6253
تاؤ	-6254
تلی	-6255
جاب	-6256
جار	-6257
جاں	-6258
جرھ	-6259
جود	-6260
جوں	-6261
جگا	-6262
جھٔ	-6263
حات	-6264
حلۂ	-6265
حول	-6266
خار	-6267
خبر	-6268
ختر	-6269
درش	-6270
درو	-6271
رات	-6272
راض	-6273
راط	-6274
راع	-6275
راق	-6276
راھ	-6277
رعھ	-6278
رور	-6279
ریح	-6280
ریٰ	-6281
ریھ	-6282
زاز	-6283
زاع	-6284
زلھ	-6285
سرا	-6286
سمھ	-6287
شتم	-6288
شتن	-6289
شقھ	-6290
شنی	-6291
شین	-6292
صول	-6293
طنی	-6294
ظیف	-6295
عین	-6296
غان	-6297
غنی	-6298
غوش	-6299
ائف	-6300
اشا	-6301
افی	-6302
بخت	-6303
فتۂ	-6304
فسر	-6305
قاد	-6306
قار	-6307
قوں	-6308
لات	-6309
لان	-6310
لکی	-6311
ماض	-6312
مال	-6313
منی	-6314
موش	-6315
ناز	-6316
نمی	-6317
نون	-6318
نپا	-6319
نگر	-6320
نیٰ	-6321
وبت	-6322
ورپ	-6323
ولھ	-6324
ونا	-6325
ویذ	-6326
پئی	-6327
چند	-6328
ڑکے	-6329
کان	-6330
کنت	-6331
کور	-6332
گمگ	-6333
گنی	-6334
گین	-6335
ھاب	-6336
ھری	-6337
ھرے	-6338
ھوش	-6339
ھیٔ	-6340
ینی	-6341
یوب	-6342
یور	-6343
▁بش	-6344
▁ثر	-6345
▁جڑ	-6346
▁حظ	-6347
▁رچ	-6348
▁شق	-6349
▁شل	-6350
▁صم	-6351
▁طپ	-6352
▁فٹ	-6353
▁لت	-6354
▁مف	-6355
▁نن	-6356
▁وز	-6357
▁گد	-6358
ئبار	-6359
ئیوں	-6360
ابوں	-6361
افات	-6362
افلو	-6363
اللھ	-6364
بارا	-6365
بارھ	-6366
بونی	-6367
بوکا	-6368
بھار	-6369
بیلے	-6370
تیاں	-6371
ثبات	-6372
حتیں	-6373
خانے	-6374
دابی	-6375
داشت	-6376
راثت	-6377
زلوں	-6378
زولی	-6379
ستھٔ	-6380
سوسے	-6381
سیوں	-6382
شتگی	-6383
طفال	-6384
فاقی	-6385
لائی	-6386
مائے	-6387
ندتے	-6388
نوشت	-6389
نیوں	-6390
وبست	-6391
وتنی	-6392
ولیٰ	-6393
ونھی	-6394
ویلا	-6395
کارا	-6396
کایک	-6397
کنان	-6398
گاھی	-6399
دوم	-6400
موم	-6401
اقبت	-6402
الیھ	-6403
بوبی	-6404
ندھن	-6405
ھانھ	-6406
ھودھ	-6407
ھویں	-6408
یانے	-6409
یدگی	-6410
یرین	-6411
یزگی	-6412
یلوں	-6413
▁اجت	-6414
▁ارت	-6415
▁ارض	-6416
▁اصط	-6417
▁الب	-6418
▁الر	-6419
▁الک	-6420
▁انی	-6421
▁اوف	-6422
▁اھن	-6423
▁باؤ	-6424
▁بخل	-6425
▁بدا	-6426
▁بدخ	-6427
▁بدگ	-6428
▁برت	-6429
▁برج	-6430
▁بسم	-6431
▁بلک	-6432
▁بوچ	-6433
▁بٹا	-6434
▁بپا	-6435
▁بکا	-6436
▁بیق	-6437
▁بین	-6438
▁بیں	-6439
▁تام	-6440
▁تیش	-6441
▁جئے	-6442
▁جبھ	-6443
▁جرس	-6444
▁جوڑ	-6445
▁جھڑ	-6446
▁حام	-6447
▁حزن	-6448
▁حسب	-6449
▁حشم	-6450
▁حوا	-6451
▁حوض	-6452
▁خطۂ	-6453
▁خوی	-6454
▁دائ	-6455
▁درا	-6456
▁دفی	-6457
▁دما	-6458
▁دکن	-6459
▁دھج	-6460
▁دھم	-6461
▁دیش	-6462
▁دیپ	-6463
▁ذبح	-6464
▁ذرۂ	-6465
▁راب	-6466
▁راج	-6467
▁رخش	-6468
▁رسی	-6469
▁ریگ	-6470
▁زنخ	-6471
▁سدھ	-6472
▁سست	-6473
▁سطر	-6474
▁سقر	-6475
▁سمن	-6476
▁سھم	-6477
▁سھے	-6478
▁سیپ	-6479
▁شال	-6480
▁شدھ	-6481
▁شرف	-6482
▁شنی	-6483
▁صاح	-6484
▁صاد	-6485
▁صلح	-6486
▁ضیا	-6487
▁طرھ	-6488
▁طمع	-6489
▁عرب	-6490
▁عقد	-6491
▁غار	-6492
▁غوا	-6493
▁غول	-6494
▁فاح	-6495
▁فام	-6496
▁فرص	-6497
▁فوج	-6498
▁قبل	-6499
احب	-6500
اطب	-6501
خانۂ	-6502
دگار	-6503
▁خرچ	-6504
▁ذمھ	-6505
▁سجی	-6506
▁سپھ	-6507
▁فصد	-6508
▁قوی	-6509
▁لاج	-6510
▁لام	-6511
▁لجا	-6512
▁لغت	-6513
▁لوک	-6514
▁لیس	-6515
▁مائ	-6516
▁ماب	-6517
▁ماس	-6518
▁مجذ	-6519
▁مصط	-6520
▁معب	-6521
▁منج	-6522
▁منف	-6523
▁موا	-6524
▁میت	-6525
▁ناع	-6526
▁نان	-6527
▁نبھ	-6528
▁نزک	-6529
▁نکش	-6530
▁نھر	-6531
▁نیھ	-6532
▁ورد	-6533
▁وری	-6534
▁ٹکر	-6535
▁پال	-6536
▁پام	-6537
▁پرد	-6538
▁پلے	-6539
▁پنا	-6540
▁پوج	-6541
▁پول	-6542
▁پھٹ	-6543
▁چست	-6544
▁چنا	-6545
▁چوب	-6546
▁کسب	-6547
▁کسر	-6548
▁کلھ	-6549
▁کمخ	-6550
▁کمز	-6551
▁کوک	-6552
▁گرج	-6553
▁گرو	-6554
▁گمر	-6555
▁گول	-6556
▁گچھ	-6557
▁گھل	-6558
▁ھرے	-6559
▁ھچک	-6560
▁یاب	-6561
▁یمن	-6562
▁یوم	-6563
اتھوں	-6564
اریوں	-6565
الیوں	-6566
اندان	-6567
اندھے	-6568
انگیز	-6569
انیاں	-6570
برانا	-6571
جھواں	-6572
رابری	-6573
راروں	-6574
ستانی	-6575
لائیں	-6576
ماعیل	-6577
ندھلی	-6578
نگونی	-6579
وانوں	-6580
ورائے	-6581
گاروں	-6582
ھاروں	-6583
▁آئیے	-6584
▁ائنۂ	-6585
▁ائیو	-6586
▁ابلۂ	-6587
▁اجزا	-6588
▁اجڑا	-6589
▁اجڑی	-6590
▁اسیا	-6591
▁افتا	-6592
▁افشر	-6593
▁الست	-6594
▁امرت	-6595
▁امرو	-6596
▁امنگ	-6597
▁انجن	-6598
▁اودے	-6599
طھٔ	-6600
نڈی	-6601
طاعت	-6602
▁رمض	-6603
▁زرھ	-6604
▁سھج	-6605
▁فاق	-6606
▁نعل	-6607
▁چرب	-6608
▁اٹکا	-6609
▁اچٹے	-6610
▁اڑان	-6611
▁اڑتا	-6612
▁اکتا	-6613
▁اگتی	-6614
▁اگلا	-6615
▁ایات	-6616
▁ایفا	-6617
▁بالی	-6618
▁بانگ	-6619
▁بانی	-6620
▁باور	-6621
▁بتان	-6622
▁بجتی	-6623
▁بجھی	-6624
▁بخار	-6625
▁بخود	-6626
▁بخیر	-6627
▁بخیے	-6628
▁بدری	-6629
▁بدلھ	-6630
▁برات	-6631
▁برجا	-6632
▁بردھ	-6633
▁برزخ	-6634
▁بساؤ	-6635
▁بستن	-6636
▁بستھ	-6637
▁بسیں	-6638
▁بشکل	-6639
▁بشکن	-6640
▁بنجر	-6641
▁بندا	-6642
▁بوتل	-6643
▁بودا	-6644
▁بونے	-6645
▁بوٹا	-6646
▁بوٹے	-6647
▁بکار	-6648
▁بکھی	-6649
▁بھنے	-6650
▁بھور	-6651
▁بھکے	-6652
▁بیچا	-6653
▁بیکس	-6654
▁تابئ	-6655
▁تارھ	-6656
▁تاکھ	-6657
▁تجمل	-6658
▁تدرو	-6659
▁تردد	-6660
▁ترکش	-6661
▁تسمھ	-6662
▁تصوف	-6663
▁تمیز	-6664
▁تندی	-6665
▁توان	-6666
▁توکل	-6667
▁تکان	-6668
▁تکتا	-6669
▁تکلم	-6670
▁تھمی	-6671
▁تھمے	-6672
▁تھکے	-6673
▁تیشھ	-6674
▁ثبوت	-6675
▁ثروت	-6676
▁جاڑے	-6677
▁جاگھ	-6678
▁جبھی	-6679
▁جزیر	-6680
▁جلسے	-6681
▁جلنا	-6682
▁جلوں	-6683
▁جمنا	-6684
▁جواز	-6685
▁جوان	-6686
▁جوشؔ	-6687
▁جوڑا	-6688
▁جوگی	-6689
▁جویں	-6690
▁جگری	-6691
▁جھاڑ	-6692
▁جھجک	-6693
▁جھٹک	-6694
▁جھپک	-6695
▁جیتی	-6696
▁حجرھ	-6697
▁حدیں	-6698
▁حسود	-6699
بازی	-6700
▁ٹپک	-6701
▁کجی	-6702
▁ادبی	-6703
▁ادھا	-6704
▁اعضا	-6705
▁بابا	-6706
▁بابت	-6707
▁بحال	-6708
▁بھجن	-6709
▁حرمت	-6710
▁حیلے	-6711
▁خاکھ	-6712
▁خدنگ	-6713
▁خشکئ	-6714
▁خطیب	-6715
▁خیام	-6716
▁دارو	-6717
▁دانۂ	-6718
▁درشن	-6719
▁درنگ	-6720
▁دشنۂ	-6721
▁دعوے	-6722
▁دلاں	-6723
▁دودھ	-6724
▁دورئ	-6725
▁دکھل	-6726
▁دھاں	-6727
▁دیبا	-6728
▁ذاتی	-6729
▁ذلیل	-6730
▁رازی	-6731
▁راھے	-6732
▁رحیل	-6733
▁ردیف	-6734
▁رسول	-6735
▁رفتۂ	-6736
▁رندی	-6737
▁روتی	-6738
▁روزی	-6739
▁روکا	-6740
▁رکتی	-6741
▁رکنا	-6742
▁رکوں	-6743
▁ریزۂ	-6744
▁ریزی	-6745
▁ریشم	-6746
▁ریشۂ	-6747
▁ریشے	-6748
▁رینگ	-6749
▁زندی	-6750
▁زیاد	-6751
▁زیور	-6752
▁ساجن	-6753
▁سالک	-6754
▁ساون	-6755
▁سبیل	-6756
▁ستار	-6757
▁سجتے	-6758
▁سجھا	-6759
▁سحاب	-6760
▁سختی	-6761
▁سران	-6762
▁سرحد	-6763
▁سرشت	-6764
▁سرود	-6765
▁سستی	-6766
▁سفید	-6767
▁سلجھ	-6768
▁سماج	-6769
▁سمند	-6770
▁سمٹا	-6771
▁سمیٹ	-6772
▁سناؤ	-6773
▁سندر	-6774
▁سنیے	-6775
▁سوجھ	-6776
▁سونی	-6777
▁سوچے	-6778
▁سوکھ	-6779
▁سپاھ	-6780
▁سپید	-6781
▁سھنا	-6782
▁سھنے	-6783
▁سھوں	-6784
▁سیلئ	-6785
▁سینا	-6786
▁شانا	-6787
▁شانۂ	-6788
▁شدید	-6789
▁شرقی	-6790
▁شوکت	-6791
▁شھدا	-6792
▁شھسو	-6793
▁شھلا	-6794
▁شھود	-6795
▁شھپر	-6796
▁شیرھ	-6797
▁صدمۂ	-6798
▁صدھا	-6799
ظیفھ	-6800
▁خجل	-6801
▁قحط	-6802
میائی	-6803
نگھرو	-6804
▁ادرش	-6805
▁بزدل	-6806
▁بیرا	-6807
▁تحفھ	-6808
▁جرعھ	-6809
▁خائف	-6810
▁داخل	-6811
▁رعشھ	-6812
▁سفال	-6813
▁شمیم	-6814
▁شگاف	-6815
▁شیعھ	-6816
▁صیقل	-6817
▁ضعیف	-6818
▁طرار	-6819
▁طلعت	-6820
▁طناب	-6821
▁طناز	-6822
▁طھور	-6823
▁عادی	-6824
▁عاری	-6825
▁عدیم	-6826
▁عطار	-6827
▁عقدے	-6828
▁علیؔ	-6829
▁غائب	-6830
▁غازھ	-6831
▁غربی	-6832
▁غرقۂ	-6833
▁غروب	-6834
▁غلتی	-6835
▁غماز	-6836
▁غمزے	-6837
▁غنیم	-6838
▁فرات	-6839
▁فرحت	-6840
▁فزوں	-6841
▁فشار	-6842
▁فغان	-6843
▁فھمی	-6844
▁قاضی	-6845
▁قافل	-6846
▁قانع	-6847
▁قشقھ	-6848
▁قیصر	-6849
▁لاحق	-6850
▁لاشھ	-6851
▁لاشے	-6852
▁لاغر	-6853
▁لالچ	-6854
▁لرزے	-6855
▁لپٹا	-6856
▁لپٹی	-6857
▁لپٹے	-6858
▁لپکا	-6859
▁لڑنے	-6860
▁لڑکھ	-6861
▁لیلا	-6862
▁لیلی	-6863
▁لیٹے	-6864
▁ماری	-6865
▁مالی	-6866
▁مانو	-6867
▁ماھر	-6868
▁مایھ	-6869
▁مایۂ	-6870
▁مبیں	-6871
▁مجکو	-6872
▁محلے	-6873
▁محور	-6874
▁مخزن	-6875
▁مرتی	-6876
▁مردن	-6877
▁مردھ	-6878
▁مرقع	-6879
▁مروں	-6880
▁مرید	-6881
▁مسلط	-6882
▁مسلک	-6883
▁مسند	-6884
▁مسوں	-6885
▁مسکن	-6886
▁مشاھ	-6887
▁مشفق	-6888
▁مضطر	-6889
▁معمھ	-6890
▁معنئ	-6891
▁ملزم	-6892
▁ملوک	-6893
▁ممتا	-6894
▁منور	-6895
▁مواف	-6896
▁مورت	-6897
▁موڑا	-6898
▁مٹنا	-6899
▁بعض	-6900
▁مزد	-6901
▁مگس	-6902
▁کچی	-6903
▁بعید	-6904
▁تخیل	-6905
▁حاسد	-6906
▁خلیل	-6907
▁ساکت	-6908
▁سرزد	-6909
▁صدمے	-6910
▁صفحے	-6911
▁عقیق	-6912
▁عوام	-6913
▁غوطھ	-6914
▁فصاد	-6915
▁قدیم	-6916
▁مظھر	-6917
▁منگا	-6918
▁مٹیں	-6919
▁مژدۂ	-6920
▁مژھٔ	-6921
▁مھیا	-6922
▁مھیب	-6923
▁میلی	-6924
▁میوھ	-6925
▁میکش	-6926
▁نادر	-6927
▁ناقص	-6928
▁نخوت	-6929
▁نزاع	-6930
▁نقاش	-6931
▁نقطۂ	-6932
▁نقوش	-6933
▁نوجو	-6934
▁نورس	-6935
▁نگھی	-6936
▁نھنگ	-6937
▁نیلے	-6938
▁واجب	-6939
▁وارث	-6940
▁وارے	-6941
▁وسیع	-6942
▁وقفھ	-6943
▁ٹلتے	-6944
▁ٹلنے	-6945
▁ٹوپی	-6946
▁ٹھنی	-6947
▁ٹھیس	-6948
▁پاتی	-6949
▁پالے	-6950
▁پاوے	-6951
▁پتلی	-6952
▁پرکھ	-6953
▁پستی	-6954
▁پسپا	-6955
▁پلنگ	-6956
▁پنبۂ	-6957
▁پوجا	-6958
▁پڑنا	-6959
▁پڑنے	-6960
▁پڑھے	-6961
▁پکڑی	-6962
▁پھان	-6963
▁پھرو	-6964
▁پھنا	-6965
▁پیتا	-6966
▁پیتل	-6967
▁پیسا	-6968
▁پینا	-6969
▁پیوں	-6970
▁پیچے	-6971
▁چبھو	-6972
▁چبھے	-6973
▁چشمک	-6974
▁چلئے	-6975
▁چوری	-6976
▁چوسی	-6977
▁چڑھے	-6978
▁چڑیا	-6979
▁چکاں	-6980
▁چکیں	-6981
▁چھال	-6982
▁چھٹک	-6983
▁چھپی	-6984
▁چھڑک	-6985
▁چھید	-6986
▁چیرے	-6987
▁ڈوبی	-6988
▁ڈھلا	-6989
▁ڈھلی	-6990
▁کاسھ	-6991
▁کاسے	-6992
▁کاٹا	-6993
▁کرید	-6994
▁کشان	-6995
▁کشتئ	-6996
▁کشتن	-6997
▁کناں	-6998
▁کنول	-6999
▁بضد	-7000
▁خذف	-7001
▁نچو	-7002
▁ھدف	-7003
▁آغوش	-7004
▁تتلی	-7005
▁ترحم	-7006
▁حافظ	-7007
▁دختر	-7008
▁راغب	-7009
▁سمرق	-7010
▁مھوش	-7011
▁ڈگمگ	-7012
▁کنکر	-7013
▁کوری	-7014
▁کوزھ	-7015
▁کوشی	-7016
▁کوند	-7017
▁کڑوی	-7018
▁کھری	-7019
▁کھنی	-7020
▁کھپا	-7021
▁کھچے	-7022
▁کینھ	-7023
▁گانے	-7024
▁گتھی	-7025
▁گران	-7026
▁گرتا	-7027
▁گریں	-7028
▁گریے	-7029
▁گزین	-7030
▁گوتم	-7031
▁گولی	-7032
▁گھاٹ	-7033
▁گھاں	-7034
▁گھلا	-7035
▁گھٹن	-7036
▁گھڑے	-7037
▁گھیر	-7038
▁گیاھ	-7039
▁ھارا	-7040
▁ھلتے	-7041
▁ھلچل	-7042
▁ھمدر	-7043
▁ھوؤں	-7044
▁ھواۓ	-7045
▁یمنی	-7046
▁یورپ	-7047
ائیدار	-7048
ماردار	-7049
مانیاں	-7050
▁ائندھ	-7051
▁ابادی	-7052
▁ابرام	-7053
▁ابشار	-7054
▁ابلیس	-7055
▁ابھری	-7056
▁اتارا	-7057
▁اتارے	-7058
▁اتریں	-7059
▁اثبات	-7060
▁اخلاق	-7061
▁ادائی	-7062
▁ادمیت	-7063
▁ادنیٰ	-7064
▁ارایش	-7065
▁ازادئ	-7066
▁استان	-7067
▁اسودھ	-7068
▁اشامی	-7069
▁اشجار	-7070
▁اطاعت	-7071
▁اطفال	-7072
▁اغماض	-7073
▁اغوشی	-7074
▁افسوں	-7075
▁افکار	-7076
▁اقلیم	-7077
▁البتھ	-7078
▁الحاں	-7079
▁امکان	-7080
▁امیدی	-7081
▁امیری	-7082
▁اندھا	-7083
▁انوار	-7084
▁اوتار	-7085
▁اوسان	-7086
▁اولیٰ	-7087
▁اونچے	-7088
▁اوھام	-7089
▁اٹھوں	-7090
▁اچانک	-7091
▁اگلتی	-7092
▁اگلتے	-7093
▁اھمیت	-7094
▁ایتیں	-7095
▁باتاں	-7096
▁باخبر	-7097
▁بادشھ	-7098
▁بادھٔ	-7099
▁بادیھ	-7100
▁بارات	-7101
▁باریک	-7102
▁بالکل	-7103
▁بانجھ	-7104
▁بانکے	-7105
▁بتانا	-7106
▁بتلاؤ	-7107
▁بخشیں	-7108
▁بدلیں	-7109
▁برتاؤ	-7110
▁برستا	-7111
▁برستی	-7112
▁برقعھ	-7113
▁بسایا	-7114
▁بسیرے	-7115
▁بصیرت	-7116
▁بلاؤں	-7117
▁بلاتے	-7118
▁بلانے	-7119
▁بنانا	-7120
▁بندھا	-7121
▁بولوں	-7122
▁بچاؤں	-7123
▁بچپنے	-7124
▁بڑھنا	-7125
▁بکھرے	-7126
▁بھاتے	-7127
▁بھالی	-7128
▁بھالے	-7129
▁بھانۂ	-7130
▁بھرتی	-7131
▁بھروں	-7132
▁بھشتی	-7133
▁بھلتے	-7134
▁بھولو	-7135
▁بھوکے	-7136
▁بھڑکے	-7137
▁بھیجا	-7138
▁بیتیں	-7139
▁بیدلؔ	-7140
▁بیرون	-7141
▁بیسوا	-7142
▁تاباں	-7143
▁تحاشا	-7144
▁تحقیق	-7145
▁تذلیل	-7146
▁ترانے	-7147
▁ترکیب	-7148
▁تشھیر	-7149
▁تعارف	-7150
▁تعاقب	-7151
▁تعداد	-7152
▁تعزیت	-7153
▁تعویذ	-7154
▁تقاضے	-7155
▁تقسیم	-7156
▁تلاطم	-7157
▁تلافئ	-7158
▁تمامی	-7159
▁تمناۓ	-7160
▁تمکنت	-7161
▁تنگیٔ	-7162
▁توقیر	-7163
▁توڑتا	-7164
▁توڑتے	-7165
▁تھمتا	-7166
▁تھوڑے	-7167
▁تیوری	-7168
▁جاننے	-7169
▁جاگیر	-7170
▁جزیرے	-7171
▁جلاتی	-7172
▁جمشید	-7173
▁جنھوں	-7174
▁جولان	-7175
▁جوھری	-7176
▁جگاتے	-7177
▁جگانے	-7178
▁جھانک	-7179
▁جھپکی	-7180
▁جھڑتے	-7181
▁جھکنے	-7182
▁جھکوں	-7183
▁حرارت	-7184
▁حفاظت	-7185
▁حقائق	-7186
▁حلاوت	-7187
▁حمائل	-7188
▁حواسی	-7189
▁حوالے	-7190
▁حویلی	-7191
▁حیوان	-7192
▁خبریں	-7193
▁خجالت	-7194
▁خداؤں	-7195
▁خطاؤں	-7196
▁خلاؤں	-7197
▁خمیدھ	-7198
▁خواھی	-7199
▁خودیٔ	-7200
▁خوناب	-7201
▁خیریت	-7202
▁داروں	-7203
▁داموں	-7204
▁دبائے	-7205
▁دریدھ	-7206
▁دریغا	-7207
▁دستور	-7208
▁دفعتا	-7209
▁دلاسے	-7210
▁دلایا	-7211
▁دوانا	-7212
▁دوڑتے	-7213
▁دکھاؤ	-7214
▁دکھتی	-7215
▁دھانی	-7216
▁دھوئے	-7217
▁راستا	-7218
▁راگنی	-7219
▁رتجگا	-7220
▁رتیاں	-7221
▁رستوں	-7222
▁رسمیں	-7223
▁رعونت	-7224
▁رفتگی	-7225
▁رفوگر	-7226
▁رلانے	-7227
▁رنگیٔ	-7228
▁روئیے	-7229
▁روزوں	-7230
▁رونقی	-7231
▁روکنا	-7232
▁رکھیو	-7233
▁رکھیے	-7234
▁رھزنی	-7235
▁ریائی	-7236
▁زاروں	-7237
▁زبونی	-7238
▁زرخیز	-7239
▁زلزلھ	-7240
▁زمزمۂ	-7241
▁ساحرؔ	-7242
▁سامری	-7243
▁سایھٔ	-7244
▁ستارۂ	-7245
▁ستانا	-7246
▁ستانے	-7247
▁سجاؤں	-7248
▁سرائی	-7249
▁سربسر	-7250
▁سروری	-7251
▁سفارش	-7252
▁سفیدی	-7253
▁سلجھا	-7254
▁سلطاں	-7255
▁سماتے	-7256
▁سناتا	-7257
▁سنگیں	-7258
▁سوراخ	-7259
▁سونپی	-7260
▁سوکھی	-7261
▁سوکھے	-7262
▁سویرا	-7263
▁سپاری	-7264
▁سپنوں	-7265
▁سچائی	-7266
▁سھانے	-7267
▁سیانی	-7268
▁سیدھے	-7269
▁سیمیں	-7270
▁سیکھی	-7271
▁شانوں	-7272
▁شاگرد	-7273
▁شایان	-7274
▁شایاں	-7275
▁شبنمی	-7276
▁شمشاد	-7277
▁شنیدن	-7278
▁شکریھ	-7279
▁شکیبا	-7280
▁شگوفے	-7281
▁صبحیں	-7282
▁طائرک	-7283
▁طعنوں	-7284
▁طپیدن	-7285
▁ظاھرا	-7286
▁ظلمات	-7287
▁عادتا	-7288
▁عشوھٔ	-7289
▁عطائے	-7290
▁عقدھٔ	-7291
▁عقوبت	-7292
▁عقیدھ	-7293
▁عقیدے	-7294
▁علامت	-7295
▁عماری	-7296
▁عمروں	-7297
▁عناصر	-7298
▁عیسوی	-7299
▁غافلو	-7300
▁غالیھ	-7301
▁غریبی	-7302
▁غزلوں	-7303
▁غمازی	-7304
▁غنچھٔ	-7305
▁فائدے	-7306
▁فاختھ	-7307
▁فتراک	-7308
▁فتنھٔ	-7309
▁فدائی	-7310
▁فدائے	-7311
▁فرمان	-7312
▁فرماں	-7313
▁فضائے	-7314
▁فیضان	-7315
▁قبیلے	-7316
▁قصیدھ	-7317
▁قندیل	-7318
▁لاشیں	-7319
▁لبادے	-7320
▁لباسی	-7321
▁لرزتی	-7322
▁لوٹنے	-7323
▁لوٹیں	-7324
▁لٹانا	-7325
▁لڑانا	-7326
▁لڑکپن	-7327
▁لگاؤں	-7328
▁لگاتی	-7329
▁ماحول	-7330
▁ماروں	-7331
▁ماریں	-7332
▁مافات	-7333
▁مانتے	-7334
▁مانوں	-7335
▁محتاط	-7336
▁محویت	-7337
▁محکوم	-7338
▁مخاطب	-7339
▁مخالف	-7340
▁مختار	-7341
▁مدارا	-7342
▁مذکور	-7343
▁مرجاں	-7344
▁مرحلۂ	-7345
▁مرحلے	-7346
▁مرغان	-7347
▁مرغوب	-7348
▁مسائل	-7349
▁مستاں	-7350
▁مستعد	-7351
▁مستقل	-7352
▁مستیٔ	-7353
▁مسجود	-7354
▁مسرور	-7355
▁مشتری	-7356
▁مشتمل	-7357
▁مشغلھ	-7358
▁مصائب	-7359
▁مصاحب	-7360
▁مصوری	-7361
▁مضمحل	-7362
▁مطابق	-7363
▁مطلوب	-7364
▁مظلوم	-7365
▁معتقد	-7366
▁معجزھ	-7367
▁معدوم	-7368
▁معمار	-7369
▁معنیٰ	-7370
▁مغفرت	-7371
▁مغموم	-7372
▁مفلسی	-7373
▁مفھوم	-7374
▁مقبول	-7375
▁مقدمے	-7376
▁ملائے	-7377
▁ملانا	-7378
▁ملکیت	-7379
▁مناتا	-7380
▁مناظر	-7381
▁منانا	-7382
▁منانے	-7383
▁مندوں	-7384
▁منصفی	-7385
▁منفعل	-7386
▁مولوی	-7387
▁مٹائے	-7388
▁مٹاتے	-7389
▁مکرنے	-7390
▁مھروش	-7391
▁مھینھ	-7392
▁میرزا	-7393
▁میزان	-7394
▁میلوں	-7395
▁نارنج	-7396
▁ناساز	-7397
▁ناصیھ	-7398
▁ناچیز	-7399
▁نایاب	-7400
▁نتیجھ	-7401
▁نثاری	-7402
▁ندادھ	-7403
▁نسیاں	-7404
▁نصیبی	-7405
▁نصیحت	-7406
▁نظمیں	-7407
▁نغمھٔ	-7408
▁نفسوں	-7409
▁نوردی	-7410
▁نھائے	-7411
▁نیناں	-7412
▁وراثت	-7413
▁وسوسے	-7414
▁وظیفھ	-7415
▁وعدھٔ	-7416
▁وفاؤں	-7417
▁وقتوں	-7418
▁ولولھ	-7419
▁ٹوٹتی	-7420
▁ٹوٹتے	-7421
▁ٹپکنے	-7422
▁ٹھانی	-7423
▁ٹیڑھا	-7424
▁ٹیڑھے	-7425
▁پارسا	-7426
▁پاروں	-7427
▁پانیر	-7428
▁پتیاں	-7429
▁پردوں	-7430
▁پروئے	-7431
▁پروری	-7432
▁پرونے	-7433
▁پرویز	-7434
▁پریدھ	-7435
▁پلائے	-7436
▁پلانا	-7437
▁پلٹنا	-7438
▁پنجاب	-7439
▁پنجھٔ	-7440
▁پنکھا	-7441
▁پڑھیے	-7442
▁پکارا	-7443
▁پگھلی	-7444
▁پھریں	-7445
▁پھنسے	-7446
▁پھولا	-7447
▁پھولی	-7448
▁پھوڑا	-7449
▁پھیرا	-7450
▁پھیری	-7451
▁پھیکا	-7452
▁پیامی	-7453
▁پیشوا	-7454
▁پیمبر	-7455
▁پیچھا	-7456
▁پیکار	-7457
▁چارگی	-7458
▁چاشنی	-7459
▁چالیں	-7460
▁چاھتی	-7461
▁چرانے	-7462
▁چرایا	-7463
▁چشموں	-7464
▁چمپئی	-7465
▁چمکنے	-7466
▁چمکیں	-7467
▁چونکے	-7468
▁چوٹیں	-7469
▁چٹکنا	-7470
▁چڑھنے	-7471
▁چکایا	-7472
▁چکیدن	-7473
▁چھانی	-7474
▁چھتیں	-7475
▁چھونا	-7476
▁چھوڑو	-7477
▁چھپاؤ	-7478
▁چھپتا	-7479
▁چھپتے	-7480
▁چھپیں	-7481
▁چھڑکے	-7482
▁چھیڑی	-7483
▁چیزوں	-7484
▁چیزیں	-7485
▁ڈبوتا	-7486
▁ڈراتا	-7487
▁ڈرایا	-7488
▁ڈوبنا	-7489
▁ڈھلتی	-7490
▁ڈھلنے	-7491
▁کاموں	-7492
▁کرچیں	-7493
▁کسریٰ	-7494
▁کشتوں	-7495
▁کلاھی	-7496
▁کلیوں	-7497
▁کمبخت	-7498
▁کنارا	-7499
▁کناری	-7500
▁کنایھ	-7501
▁کوندے	-7502
▁کوچوں	-7503
▁کوھکن	-7504
▁کٹائی	-7505
▁کٹاری	-7506
▁کھانا	-7507
▁کھرام	-7508
▁کھلنا	-7509
▁کھولو	-7510
▁کھونا	-7511
▁کھیلا	-7512
▁کھیلے	-7513
▁کیاری	-7514
▁گائیں	-7515
▁گاروں	-7516
▁گاھیں	-7517
▁گداؤں	-7518
▁گدازی	-7519
▁گرانے	-7520
▁گردان	-7521
▁گزارش	-7522
▁گزشتھ	-7523
▁گساری	-7524
▁گفتنی	-7525
▁گلگوں	-7526
▁گمنام	-7527
▁گناھی	-7528
▁گویاں	-7529
▁گھستے	-7530
▁گھٹتے	-7531
▁گھیرا	-7532
▁ھرچند	-7533
▁ھزاری	-7534
▁ھستیٔ	-7535
▁ھلاھل	-7536
▁ھمدمو	-7537
▁ھموار	-7538
▁یونھی	-7539
▁یکایک	-7540
▁یکبار	-7541
▁یکساں	-7542
▁اتفاقی	-7543
▁اجتناب	-7544
▁احتجاج	-7545
▁اختراع	-7546
▁ارادوں	-7547
▁ارمغاں	-7548
▁ازردگی	-7549
▁ازمائی	-7550
▁ازمائے	-7551
▁استانھ	-7552
▁اشفتگی	-7553
▁اشناؤں	-7554
▁اشکارا	-7555
▁اعتدال	-7556
▁اعتقاد	-7557
▁افتخار	-7558
▁الجھتے	-7559
▁الجھنا	-7560
▁امیدوں	-7561
▁انتساب	-7562
▁اندازے	-7563
▁اندیشۂ	-7564
▁اندیشے	-7565
▁انکھاں	-7566
▁انگارا	-7567
▁انگبیں	-7568
▁اوازوں	-7569
▁اٹھاؤں	-7570
▁اڑائیں	-7571
▁اڑانوں	-7572
▁ایمائے	-7573
▁ایندھن	-7574
▁بادشاھ	-7575
▁بادلوں	-7576
▁بازاری	-7577
▁بالیدن	-7578
▁بجھاتی	-7579
▁بجھانا	-7580
▁برابری	-7581
▁براتیں	-7582
▁برداشت	-7583
▁برھانی	-7584
▁بلندیٔ	-7585
▁بنائیں	-7586
▁بچائیں	-7587
▁بچھائے	-7588
▁بچھونا	-7589
▁بڑھاتے	-7590
▁بڑھانا	-7591
▁بڑھانے	-7592
▁بکھرنا	-7593
▁بھبوکا	-7594
▁بھٹکنے	-7595
▁بھگوان	-7596
▁بھیگنے	-7597
▁بیقرار	-7598
▁بیھودھ	-7599
▁تابانی	-7600
▁تابدار	-7601
▁ترجماں	-7602
▁تسلیاں	-7603
▁تلخیاں	-7604
▁تماشاۓ	-7605
▁تنخواھ	-7606
▁توھمات	-7607
▁تکلفات	-7608
▁تھمتیں	-7609
▁تھوکتا	-7610
▁تیرگیٔ	-7611
▁تیلیاں	-7612
▁جانباز	-7613
▁جانشین	-7614
▁جبرئیل	-7615
▁جبینوں	-7616
▁جوئبار	-7617
▁جویائے	-7618
▁جھانکے	-7619
▁جھمکتا	-7620
▁جھمیلے	-7621
▁جھکائے	-7622
▁جھگڑتے	-7623
▁جھینپا	-7624
▁حدیثوں	-7625
▁حریفاں	-7626
▁حوصلگی	-7627
▁خاندان	-7628
▁خانقاھ	-7629
▁خاکسار	-7630
▁خداداد	-7631
▁خراماں	-7632
▁خطائیں	-7633
▁خطاوار	-7634
▁خلوتوں	-7635
▁خوارگی	-7636
▁خویشتن	-7637
▁خیاباں	-7638
▁داریاں	-7639
▁دانائی	-7640
▁درختوں	-7641
▁درخشاں	-7642
▁درندوں	-7643
▁دشمناں	-7644
▁دلستاں	-7645
▁دنبالھ	-7646
▁دوبارا	-7647
▁دوبارھ	-7648
▁دورائے	-7649
▁دوربیں	-7650
▁دکھاتے	-7651
▁دکھانا	-7652
▁دکھاوے	-7653
▁دھراتے	-7654
▁دھندلک	-7655
▁دھڑکتے	-7656
▁دیاروں	-7657
▁دیوانۂ	-7658
▁دیوانی	-7659
▁دیکھیو	-7660
▁رفتگان	-7661
▁رقیباں	-7662
▁رنجیدھ	-7663
▁روایات	-7664
▁روندتے	-7665
▁رونقیں	-7666
▁روٹھیں	-7667
▁زاھدوں	-7668
▁زلزلوں	-7669
▁زمانوں	-7670
▁زنجیری	-7671
▁زندگیٔ	-7672
▁سازشیں	-7673
▁ساکنان	-7674
▁سدھارے	-7675
▁سربستھ	-7676
▁سرنوشت	-7677
▁سروکار	-7678
▁سرگراں	-7679
▁سرھانے	-7680
▁سزائیں	-7681
▁سزاوار	-7682
▁سلطانی	-7683
▁سمجھوت	-7684
▁سنوارا	-7685
▁سنورتی	-7686
▁سنورتے	-7687
▁سنورنے	-7688
▁سنگسار	-7689
▁سوالات	-7690
▁سوگندھ	-7691
▁سوگوار	-7692
▁سکندری	-7693
▁سکھائی	-7694
▁سکھائے	-7695
▁سکھایا	-7696
▁شادابی	-7697
▁شادماں	-7698
▁شاھوار	-7699
▁شرربار	-7700
▁شرمندۂ	-7701
▁شعاعوں	-7702
▁شوخیاں	-7703
▁شورشیں	-7704
▁شکستگی	-7705
▁شگفتگی	-7706
▁شھیدان	-7707
▁شھیدوں	-7708
▁شیدائی	-7709
▁شیرازۂ	-7710
▁شیفتھؔ	-7711
▁صوفیوں	-7712
▁صھبائے	-7713
▁عاشقاں	-7714
▁عذابوں	-7715
▁عزیزوں	-7716
▁عظمتیں	-7717
▁عقیدوں	-7718
▁غافلوں	-7719
▁غزالاں	-7720
▁غفلتیں	-7721
▁فراموش	-7722
▁فرمائی	-7723
▁فرماتا	-7724
▁فرمانا	-7725
▁فروتنی	-7726
▁فسردگی	-7727
▁فصیلیں	-7728
▁قدسیوں	-7729
▁قربتوں	-7730
▁لبھائے	-7731
▁لٹائیں	-7732
▁لکیروں	-7733
▁لھرائے	-7734
▁مانگتا	-7735
▁مانگتی	-7736
▁مانگتے	-7737
▁مانگنے	-7738
▁محبوبی	-7739
▁محفلوں	-7740
▁مرادیں	-7741
▁مردماں	-7742
▁مستجاب	-7743
▁مستعار	-7744
▁مستغنی	-7745
▁مستیوں	-7746
▁مسجدوں	-7747
▁مسجدیں	-7748
▁معاملے	-7749
▁معزولی	-7750
▁مغبچوں	-7751
▁مناجات	-7752
▁موشگاف	-7753
▁مکینوں	-7754
▁میزباں	-7755
▁میھماں	-7756
▁ناتوان	-7757
▁ناصحوں	-7758
▁نامحرم	-7759
▁نامراد	-7760
▁نبھاتا	-7761
▁نصابوں	-7762
▁نظارھٔ	-7763
▁نوبھار	-7764
▁نورانی	-7765
▁نوشتھٔ	-7766
▁نکیرین	-7767
▁نگرانی	-7768
▁نگھبان	-7769
▁نیرنگی	-7770
▁وادیاں	-7771
▁واماند	-7772
▁واویلا	-7773
▁وفادار	-7774
▁ٹکرانا	-7775
▁ٹھھرنے	-7776
▁پاتھوں	-7777
▁پادشاھ	-7778
▁پاکباز	-7779
▁پاکیزھ	-7780
▁پرستار	-7781
▁پرستوں	-7782
▁پرفشاں	-7783
▁پرندوں	-7784
▁پرکاری	-7785
▁پشیمان	-7786
▁پنھانی	-7787
▁پکارتے	-7788
▁پکارنے	-7789
▁پگھلتا	-7790
▁پھنچنا	-7791
▁پھنچیں	-7792
▁پھونکا	-7793
▁پھوڑنا	-7794
▁پھیلتا	-7795
▁پیالوں	-7796
▁پیدائش	-7797
▁پیدائی	-7798
▁پیرائی	-7799
▁پیچیدھ	-7800
▁چاھتیں	-7801
▁چٹانوں	-7802
▁چھتیاں	-7803
▁چھوٹیں	-7804
▁چھوڑوں	-7805
▁چھپاتے	-7806
▁چھڑایا	-7807
▁چھیڑنے	-7808
▁چھیڑوں	-7809
▁ڈھونڈو	-7810
▁کارگاھ	-7811
▁کاشانھ	-7812
▁کاشانے	-7813
▁کاندھے	-7814
▁کمخواب	-7815
▁کنعانی	-7816
▁کھلائے	-7817
▁کھلاتا	-7818
▁کھلانا	-7819
▁کھلانے	-7820
▁کھلونے	-7821
▁کھودنے	-7822
▁کھٹکتا	-7823
▁کھکشاں	-7824
▁کھیلنا	-7825
▁کھیلنے	-7826
▁کیجیئے	-7827
▁گداختھ	-7828
▁گزارنے	-7829
▁گلستان	-7830
▁گنجائش	-7831
▁گنجینۂ	-7832
▁گنوائی	-7833
▁گنوایا	-7834
▁گواھوں	-7835
▁گونجتے	-7836
▁گھبراؤ	-7837
▁گھرانے	-7838
▁گھومتے	-7839
▁گھٹاتا	-7840
▁ھراساں	-7841
▁ھشیاری	-7842
▁ھنسایا	-7843
▁ھنگامے	-7844
▁ھچکیاں	-7845
▁ھیولیٰ	-7846
▁یگانوں	-7847
▁احتیاطا	-7848
▁ادائیاں	-7849
▁ارائیاں	-7850
▁ازردگاں	-7851
▁استعارے	-7852
▁استواری	-7853
▁اسداللھ	-7854
▁اسرافیل	-7855
▁اسماعیل	-7856
▁افتادگی	-7857
▁افسانوں	-7858
▁انتظاری	-7859
▁انجھواں	-7860
▁اندھیاں	-7861
▁انگلیوں	-7862
▁اوفتادھ	-7863
▁بازاروں	-7864
▁باندھتا	-7865
▁بلندیوں	-7866
▁بندوبست	-7867
▁بڑھائیں	-7868
▁بیتابیٔ	-7869
▁تازیانھ	-7870
▁تدبیریں	-7871
▁ترجمانی	-7872
▁تلواریں	-7873
▁تنگنائے	-7874
▁تھرتھرا	-7875
▁جاودانی	-7876
▁جدائیاں	-7877
▁جمھوریت	-7878
▁جھانکتا	-7879
▁جھونکوں	-7880
▁خبرداری	-7881
▁خداوندی	-7882
▁خموشیوں	-7883
▁خوشبوئے	-7884
▁دادخواھ	-7885
▁درماندھ	-7886
▁دروازوں	-7887
▁درویشوں	-7888
▁دوستانھ	-7889
▁دوشیزگی	-7890
▁دکھلائی	-7891
▁دکھلاوے	-7892
▁دھندھلی	-7893
▁دھڑکنوں	-7894
▁رنگینیٔ	-7895
▁ریکھاؤں	-7896
▁سامانوں	-7897
▁سحرگاھی	-7898
▁سرفرازی	-7899
▁سرنگونی	-7900
▁سلیمانی	-7901
▁سمجھایا	-7902
▁سمجھوتے	-7903
▁سنبھالا	-7904
▁سنبھالو	-7905
▁سنبھلتے	-7906
▁سنبھلنے	-7907
▁سنوارنے	-7908
▁شائستگی	-7909
▁شاھبازی	-7910
▁شھنشاھی	-7911
▁طوفانوں	-7912
▁عداوتیں	-7913
▁عنایتیں	-7914
▁غائبانھ	-7915
▁فرزانگی	-7916
▁فرمائیں	-7917
▁فرماویں	-7918
▁ماورائے	-7919
▁مجبوروں	-7920
▁محرمانھ	-7921
▁مداوائے	-7922
▁مرجھائے	-7923
▁مسافروں	-7924
▁مسلمانی	-7925
▁مسکراتا	-7926
▁مسکرانا	-7927
▁مسیحائے	-7928
▁معاملات	-7929
▁مومیائی	-7930
▁مھنگائی	-7931
▁ناعاقبت	-7932
▁نشانیاں	-7933
▁نوازشیں	-7934
▁نگھبانی	-7935
▁نیازانھ	-7936
▁وابستگی	-7937
▁پادشاھی	-7938
▁پذیرائی	-7939
▁پروانوں	-7940
▁پھنسایا	-7941
▁پیمانوں	-7942
▁چمکائیں	-7943
▁ڈگمگائے	-7944
▁	-7945
ا	-7946
ھ	-7947
ی	-7948
و	-7949
ر	-7950
ک	-7951
ے	-7952
ن	-7953
م	-7954
ت	-7955
ں	-7956
س	-7957
ب	-7958
د	-7959
ل	-7960
ج	-7961
گ	-7962
ش	-7963
پ	-7964
ئ	-7965
ز	-7966
چ	-7967
خ	-7968
ق	-7969
ف	-7970
ع	-7971
ح	-7972
غ	-7973
ص	-7974
ط	-7975
ٹ	-7976
ڑ	-7977
ظ	-7978
ؔ	-7979
ۂ	-7980
ض	-7981
ذ	-7982
ؤ	-7983
ڈ	-7984
ث	-7985
ٔ	-7986
ٰ	-7987
آ	-7988
ۓ	-7989
ژ	-7990
،	-7991
؟	-7992
أ	-7993
ء	-7994
ۃ	-7995
